#version: 0.2
t h
a n
th e</w>
i n
e r
a r
e d</w>
t i
o f</w>
e n
r e
o n
an d</w>
i n</w>
o r
e r</w>
a l
i s</w>
o u
o n</w>
e s</w>
s t
t o</w>
a t
in g</w>
i t
a s</w>
r o
a l</w>
T h
a n</w>
d i
i l
o r</w>
i c
o s
e l
a c
e s
o m
a s
a m
a t</w>
u r
a p
e c
e n</w>
r i
Th e</w>
p l
a ti
o l
u s
w as</w>
h a
i s
l y</w>
e m
a g
a d
v e</w>
w h
en t</w>
u n
c h
t s</w>
f or</w>
l i
s i
i r
ar e</w>
o w
o t
e v
u l
ap os
& apos
it h</w>
q u
b y</w>
a r</w>
a b
s h
w ith</w>
a y</w>
b e
er e</w>
er s</w>
th at</w>
t r
c on
ou n
l e
th e
c e</w>
c om
a k
p ro
ati on</w>
ro m</w>
g h
I n
o v
s u
&apos ;
f rom</w>
i t</w>
a y
d e
o p
f or
e x
l e</w>
2 0
o c
s p
h i
s e
at e</w>
t ed</w>
on s</w>
it y</w>
ti on</w>
b e</w>
n o
i d
th er</w>
o o
t h</w>
&apos; s</w>
s o</w>
1 9
i m
b u
t er</w>
d s</w>
In di
p e
f f
n e
p er
c l
at ed</w>
a v
u m
re s
pl e</w>
I t</w>
t er
p ar
al l</w>
c h</w>
st r
h as</w>
i r</w>
o u</w>
on e</w>
h is</w>
ha ve</w>
qu ot
quot ;</w>
& quot;</w>
an g
a in
I n</w>
h e</w>
al so</w>
in g
d u
es t</w>
u d
w or
l d</w>
ou t</w>
en t
a m</w>
e t
y ou</w>
C h
s t</w>
ou r</w>
i v
an y</w>
H e</w>
al ly</w>
w e
ag e</w>
no t</w>
ic h</w>
c an</w>
am e</w>
an d
w ere</w>
al l
th is</w>
re c
p or
g r
wh ich</w>
om e</w>
e ar
ti m
i c</w>
r a
or e</w>
m e
Indi a</w>
on al</w>
ow n</w>
a d</w>
s c
ou r
t e
m ent</w>
i es</w>
os t</w>
ur e</w>
e p
the ir</w>
u t
o ther</w>
o d
i g
20 1
gh t</w>
b er</w>
ar y</w>
il l</w>
a in</w>
e t</w>
f ir
i ti
en ts</w>
en d
o ple</w>
an t</w>
it s</w>
g h</w>
il l
e y</w>
es s</w>
ou s</w>
a f
es e</w>
si d
o w</w>
ov er
i d</w>
ou ld</w>
as t</w>
in e</w>
ha d</w>
an c
be en</w>
p u
pe ople</w>
g i
a j
an ce</w>
f e
the y</w>
b r
b ec
m on
h e
v er
oun d</w>
Th is</w>
fir st</w>
ak e</w>
en ce</w>
for m
us e</w>
t w
i a</w>
S t
b l
con t
o g
s e</w>
k s</w>
f i
wh o</w>
f l
bu t</w>
du c
d er</w>
on g</w>
at es</w>
at er</w>
p os
a st
e st
g e</w>
m in
c oun
ti c
us ed</w>
ic e</w>
com m
h ar
pl ay
&apos ;</w>
w ill</w>
s er
i al</w>
i p
ac e</w>
20 0
ou gh</w>
m ost</w>
e d
k e</w>
y our</w>
U n
tim e</w>
t ing</w>
p re
al s</w>
f il
t em
m ore</w>
m ar
h er</w>
ati onal</w>
ur ing</w>
el y</w>
ab le</w>
ad e</w>
is h
u s</w>
re s</w>
w ar
oo d</w>
er n</w>
p res
ol l
ati ons</w>
m any</w>
d ay</w>
as s
i l</w>
f in
i z
u p</w>
ti ons</w>
e l</w>
ic al</w>
ab out</w>
an s</w>
t y</w>
cl ud
i st
a u
A n
s y
ing s</w>
c re
A l
p h
a th
af ter</w>
it e</w>
k n
ev er</w>
tw o</w>
el l
ev er
t u
g o
it ed</w>
s ec
in clud
or y</w>
p o
d ing</w>
t o
re e</w>
st ate</w>
ar e
in to</w>
es s
ti v
p ri
at t
k ing</w>
as e</w>
o ff
th an</w>
u e</w>
o f
ov er</w>
h el
0 0</w>
t ri
m il
m ay</w>
o b
s a
an n
v i
g en
w ay</w>
ac k</w>
u c
us t</w>
l ar
ac h</w>
el l</w>
s ome</w>
ay s</w>
l and</w>
in d
st ar
l oc
Indi an</w>
wh en</w>
i on</w>
en ti
c o
s ti
A r
as ed</w>
r it
in ter
th ere</w>
s on</w>
m ade</w>
M ar
p r
ac h
on ly</w>
over n
be t
os e</w>
r u
en g
the m</w>
sp ec
ol d</w>
th r
d o
su ch</w>
on g
t ur
a h
c or
di ff
ri v
il e</w>
Th ey</w>
fil m</w>
y ear
i f
t en</w>
v is
or s</w>
d er
b o
ch il
d uring</w>
m ov
d ev
A m
ar i
u m</w>
kn own</w>
li ke</w>
f am
c ity</w>
di s
di c
c all
en c
d ec
k ed</w>
iti es</w>
am p
a use</w>
e ar</w>
ser v
m p
st s</w>
a il
d re
p ol
is t</w>
com p
Th ere</w>
in ce</w>
en d</w>
y a</w>
N e
h i</w>
t re
th ese</w>
year s</w>
st e
s el
W h
i ght</w>
p op
m o
hi m</w>
ec ted</w>
l a
em ber</w>
A f
i th
d es
c ar
for e</w>
P ar
call ed</w>
pop ul
u p
wh ere</w>
si on</w>
at ing</w>
c ent
d ed</w>
ec t</w>
an a</w>
tr y</w>
f u
we en</w>
i k
pro v
in v
er ed</w>
m s</w>
n ed</w>
por t
n ational</w>
str ic
b or
bu il
a di
g re
is h</w>
19 9
P r
bet ween</w>
as h
ur r
ur y</w>
s m
y ear</w>
diff er
S he</w>
f o
n um
ti s
y p
l o
oo k</w>
no w</w>
w ater</w>
su b
t ure</w>
ow ever</w>
or t</w>
b el
par t</w>
i f</w>
c ap
il y</w>
m an
m us
b le</w>
e g
Un ited</w>
b all</w>
per i
ver y</w>
sa id</w>
n or
ou th</w>
g overn
a i</w>
S h
w ould</w>
re gi
n am
thr ough</w>
d o</w>
wor k</w>
e br
c ol
n ing</w>
m at
d r
li f
ti c</w>
ne w</w>
I f</w>
ac c
s ch
sh e</w>
ot h</w>
di ed</w>
fu l</w>
m ake</w>
an ds</w>
id e</w>
th en</w>
dre n</w>
f ac
g et</w>
i p</w>
dev el
om e
r ul
A u
pro duc
sid e</w>
c ri
m an</w>
c en
c er
th ree</w>
n o</w>
f es
em ent</w>
at h</w>
i an</w>
g u
wor ld</w>
ti ve</w>
ro w
on d</w>
M a
1 8
c ul
s k
m e</w>
u ally</w>
t or</w>
r ic
ro s
ati ve</w>
g l
u t</w>
E n
an t
ow er</w>
bec ame</w>
v es</w>
w ith
play ed</w>
l l</w>
A c
oc i
st or
be ing</w>
ap p
l es</w>
differ ent</w>
al a</w>
sh ip</w>
str uc
ch ar
com pl
ev en</w>
in c
St ates</w>
ag es</w>
re l
o d</w>
an ts</w>
B ri
stric t</w>
h a</w>
wh ile</w>
pl ace</w>
ou s
w ell</w>
ain s</w>
ou t
ang u
s l
ar d</w>
un der</w>
s ur
be fore</w>
su p
r a</w>
lif e</w>
ch ang
re m
u al</w>
im port
es h</w>
f t</w>
cent ury</w>
te am</w>
j o
in t
chil dren</w>
ec tion</w>
iv er
sh ould</w>
w om
be g
ir e</w>
hi gh
e ach</w>
w e</w>
m aj
K h
re le
H owever</w>
k e
it al</w>
di rec
ar ound</w>
si g
l angu
s ol
a k</w>
devel op
por t</w>
C om
M u
19 8
O n</w>
v ari
in s</w>
oc c
em b
ol og
em s</w>
r e</w>
al ity</w>
for m</w>
ak ing</w>
g ar
are a</w>
tim es</w>
u ary</w>
am es</w>
0 00</w>
2 0</w>
u b
l in
M an
t yp
coun try</w>
u r</w>
f oll
a w
li on</w>
ever al</w>
c a
ti l</w>
num ber</w>
ish ed</w>
f ound</w>
L e
O n
ain st</w>
n s</w>
am s</w>
t t
m u
l ed</w>
R aj
f a
er ic
ag ainst</w>
Af ter</w>
ar m
ow s</w>
g an
H ind
de p
tr an
p er</w>
19 7
of ten</w>
tis h</w>
l y
Am eric
w on</w>
f er
o th
gen er
b oth</w>
bec ause</w>
ap pe
l ater</w>
as es</w>
W or
r ed</w>
un til</w>
g ame</w>
N or
ex p
s ome
is m</w>
v ing</w>
ro p
Bri tish</w>
c el
import ant</w>
tem ple</w>
n ame</w>
A s</w>
oo l</w>
ou ght</w>
govern ment</w>
l ine</w>
res s</w>
v ir
po in
p ur
v ill
ri s
o t</w>
ac t</w>
ec ts</w>
o k
i e</w>
g iv
gr ou
D el
ent ly</w>
i gh
s ame</w>
comm un
al i</w>
Th ese</w>
cont in
m is
su c
w rit
b ro
wh at</w>
li m
C on
b ack</w>
al e</w>
fam ily</w>
pl ac
an i</w>
s everal</w>
lar g
h ol
pu r</w>
in f
s ince</w>
n at
D e
ti onal</w>
S ome</w>
off ic
F or</w>
fes tiv
a z
as on</w>
, 000</w>
F r
d en</w>
b er
&apos; t</w>
suc c
sec ond</w>
riv er</w>
di strict</w>
st ory</w>
st ri
N ational</w>
s it
e -
in du
re qu
b re
a ir
r y</w>
tr adi
se t</w>
D i
Wor ld</w>
t ake</w>
includ ing</w>
a ff
ul t</w>
includ e</w>
pl ay</w>
t ain</w>
maj or</w>
c our
e w
cor ding</w>
c ould</w>
al i
ow ing</w>
y s
o m</w>
ti es</w>
th ing</w>
bor n</w>
li c</w>
Ne w</w>
st ed</w>
en s</w>
el s</w>
M us
am m
ad esh</w>
di sc
cel ebr
star ted</w>
regi on</w>
rec e
e p</w>
mu ch</w>
ak es</w>
ste m</w>
pl es</w>
h um
per form
a ve</w>
ou se</w>
s ity</w>
y ing</w>
or ig
wom en</w>
K ar
di v
od y</w>
iz ed</w>
M e
19 6
sel f</w>
r i</w>
or gan
loc ated</w>
ar ly</w>
par tic
ig n</w>
e f
d h
lar ge</w>
S ha
ear ly</w>
sm all</w>
langu age</w>
ex am
on d
le ad
us ually</w>
l ev
com e</w>
re sid
mus ic</w>
th ern</w>
h ow</w>
per son</w>
th ough</w>
war d</w>
Del hi</w>
v ed</w>
J an
h y
Wh en</w>
re li
u res</w>
t e</w>
d ays</w>
t a</w>
g o</w>
n er</w>
m a</w>
h ome</w>
in d</w>
buil t</w>
um b
mil lion</w>
l ast</w>
di d</w>
ain ed</w>
tri es</w>
b us
0 s</w>
con sid
v al
rele ased</w>
o h
bel i
b i
t own</w>
re g
an k
ic s</w>
ex t</w>
ar a</w>
A s
di se
f ul
l it
w ar</w>
t al
s es</w>
c an
ar ch
M in
un der
rec or
n a</w>
Y ou</w>
et y</w>
G u
b ased</w>
in cre
f our</w>
ag ue</w>
hel p</w>
in a</w>
S u
i ent</w>
ic es</w>
ac k
l ong</w>
e ff
P ro
ever y</w>
id ed</w>
d own</w>
ar s</w>
th ose</w>
o p</w>
m od
ri ed</w>
en ds</w>
cont ro
s o
b ody</w>
p s</w>
comp any</w>
hel d</w>
we e
sy stem</w>
ec h
mon ey</w>
le g
i on
s ed</w>
peri od</w>
m ain</w>
il ity</w>
ut e</w>
A t</w>
b ir
op p
ul ar</w>
th er
popul ar</w>
S hi
t le</w>
st ud
end ed</w>
b as
me di
r an
Hind u</w>
j ust</w>
is ed</w>
e y
un e</w>
comm on</w>
T am
ow ed</w>
a i
du e</w>
t ou
ill s</w>
hi gh</w>
m en</w>
b an
us ing</w>
ne ar</w>
cen tr
dep end
In ter
t on</w>
r ang
l ess</w>
se e</w>
g ood</w>
1 0</w>
h app
H is</w>
e ts</w>
at a</w>
C oun
19 5
ag ed</w>
P e
re t
ad a</w>
s ou
r on
h er
at s</w>
iv ed</w>
h al
D ec
coun tries</w>
w ays</w>
si ve</w>
k et</w>
G re
re sp
m y</w>
fe w</w>
as s</w>
er y</w>
er g
tr a</w>
d e</w>
f ic
d om
d el
b ur
iver sity</w>
de ath</w>
com pe
b est</w>
ab l
S outh</w>
Pr adesh</w>
our s</w>
O c
1 7
w at
sp e
B ut</w>
B eng
bec ome</w>
an other</w>
S ing
ne ed</w>
E u
ha b
tr ac
festiv al</w>
e ther</w>
am a</w>
vill age</w>
al th</w>
fi el
el ec
s oci
o s</w>
en ed</w>
c le
sti ll</w>
o y
ros s</w>
m er</w>
at ure</w>
s ing
si ble</w>
fl u
si st
d em
c oll
sp ort</w>
th ir
al ay
p ower</w>
us es</w>
t ers</w>
v en
di tion</w>
b ri
ar ds</w>
B e
if ic
w in
iti c
fi ve</w>
pro t
ist er</w>
is ion</w>
1 5
is e</w>
fi ed</w>
se ason</w>
al ong</w>
si a</w>
pro c
g g
od ay</w>
f un
op er
are as</w>
i ally</w>
Tam il</w>
t a
f ri
P er
on om
m un
res t</w>
or ed</w>
le y</w>
ch es</w>
C ol
m ents</w>
h o
h ear
anc es</w>
in al</w>
fo re
c urr
or der</w>
of f</w>
par t
m ain
beg an</w>
u k
grou p</w>
form ation</w>
D uring</w>
ill ed</w>
all s</w>
re ad
c u
Jan uary</w>
B ra
19 4
le ft</w>
ur al</w>
iv er</w>
f oun
H ar
e f</w>
i de
dise ase</w>
M any</w>
ly mp
s ite</w>
k ey</w>
ex c
est abl
M ad
A d
larg est</w>
t ook</w>
i ons</w>
c ha
e duc
c ed</w>
P ri
pol itic
ad v
a b</w>
S ep
Americ an</w>
pos ed</w>
nam ed</w>
m i
in es</w>
c es</w>
Mar ch</w>
gr ap
ati c</w>
cap ital</w>
On e</w>
par ts</w>
ain ing</w>
sp or
n ot
2 1</w>
S p
J ap
v e
re por
pu t</w>
M ah
1 6
ti on
av es</w>
C an
O lymp
t om
m et
e qu
am ong</w>
am b
J u
t ow
t en
in ation</w>
at ely</w>
reli gi
y n
s ure</w>
s en
ent al</w>
pu b
1 2</w>
m ust</w>
p ic
me dic
i tion</w>
e e</w>
with in</w>
C ar
ac tiv
B h
g ames</w>
for t</w>
Un iversity</w>
popul ation</w>
in ess</w>
3 0</w>
sh ip
N ov
k m</w>
as h</w>
s ing</w>
giv en</w>
e as
d ro
c ame</w>
fin d</w>
Ac cording</w>
re tur
su m
r un
ar t</w>
st y
pro gr
exam ple</w>
es p
G overn
Au str
vari ous</w>
pub lic</w>
he ad</w>
gre at</w>
Mu gh
ou gh
n ess</w>
loc al</w>
st at
ic k
1 0
t ors</w>
j ect</w>
sig n
ol s</w>
do es</w>
G er
C en
s w
chil d</w>
y oun
sti tu
ot ball</w>
a way</w>
i str
R e
er ing</w>
chang e</w>
an im
R iver</w>
Austr al
w ent</w>
st ates</w>
resp on
fam ous</w>
c r
th ings</w>
ot al</w>
ech n
t or
p ass
contin u
mov ie</w>
hi stor
w ant</w>
ic ally</w>
n ext</w>
Oc to
th s</w>
em ents</w>
tre at
d ge</w>
ri p
di st
with out</w>
ro c
o re
con n
a j</w>
lev el</w>
i ous</w>
B ud
er c
M ost</w>
qu e</w>
le ar
en ted</w>
de f
fa ther</w>
Octo ber</w>
G r
A b
sit u
T em
v er</w>
u b</w>
m aking</w>
ell s</w>
Sing h</w>
tur al</w>
end ing</w>
d am
P l
tu res</w>
si an</w>
play ers</w>
char ac
Sep tem
olog y</w>
in k</w>
in j
Nov ember</w>
me d
me ans</w>
m emb
at i</w>
t ly</w>
oun t</w>
k now</w>
ep t</w>
amp ion
Septem ber</w>
h ouse</w>
an g</w>
P resid
ro le</w>
ir ed</w>
b ed</w>
a ut
pri l</w>
A pril</w>
z e</w>
Dec ember</w>
hi story</w>
M ay</w>
E x
st ro
ic ip
D ev
consid ered</w>
c ause</w>
p ed</w>
or d
c ases</w>
ast ern</w>
ar ti
re pres
l oo
do m</w>
K er
2 2</w>
mar ried</w>
enc es</w>
d ra
M on
sc i
s ha
pr ac
ri ght</w>
st and
w s</w>
t otal</w>
re ad</w>
r ac
appe ar
ac coun
v ic
l ands</w>
develop ment</w>
mon th</w>
fiel d</w>
J une</w>
oc k</w>
m ember</w>
u g
f ood</w>
Au g
ex peri
ati on
Beng al</w>
per s
oc ial</w>
go al</w>
an ti
anc ient</w>
ag ain</w>
Nor th</w>
I I</w>
tic s</w>
p en
1 5</w>
to p</w>
serv ed</w>
se en</w>
B i
tr av
s al
j i</w>
g row
Ch ri
Aug ust</w>
201 4</w>
Mus li
is su
us h
ha r</w>
ar ch</w>
war ds</w>
rece ived</w>
ist an</w>
con struc
En gl
si mil
ic k</w>
sch ool</w>
des cri
c al
P un
ro w</w>
di es</w>
in ed</w>
h ere</w>
ass oci
W e</w>
to o</w>
s our
h and</w>
st u
ut es</w>
ri sh
i ve</w>
enti al</w>
en ing</w>
e m</w>
oth ers</w>
ch ed</w>
succ ess
pro b
m ul
de fe
c at
Presid ent</w>
En g
5 0</w>
mov ed</w>
m ight</w>
ev ed</w>
P ak
F ebr
d oc
in flu
he ad
ec onom
cre ated</w>
B ar
ca used</w>
Febr uary</w>
p al
li ve</w>
enc y</w>
C o
sc rip
on -
ex pl
Ker ala</w>
thir d</w>
en n
t ak
li ght</w>
cl os
St ate</w>
Shi v
tem ples</w>
a ir</w>
S c
form s</w>
ac ross</w>
ser ies</w>
N ep
S ch
S an
ap pro
c ent</w>
W est</w>
writ ten</w>
w est</w>
memb ers</w>
a im
P al
Engl ish</w>
l ing</w>
in formation</w>
c anc
P ol
on y</w>
id es</w>
o grap
Ma har
c lim
ad d
K um
B o
S e
P h
I sl
pl y</w>
ag n
Tem ple</w>
og ether</w>
av ail
Pe ople</w>
t echn
on es</w>
li gh
l ong
i ed</w>
Ju ly</w>
y s</w>
sh ow</w>
u tion</w>
ti ce</w>
ra in</w>
li k
inv ol
re f
compl et
ad min
mat ch</w>
in depend
foll owing</w>
Mugh al</w>
le ad</w>
h un
educ ation</w>
ach ed</w>
V i
E ast</w>
contro l</w>
ev ent</w>
s ocial</w>
res ult</w>
h or
compe ti
2 5</w>
m id
form ed</w>
Pun j
f ur
establ ished</w>
201 3</w>
st re
f all</w>
cour t</w>
os is</w>
bus iness</w>
Min ister</w>
20 20</w>
m or
ing dom</w>
el ev
an e</w>
sy mp
201 7</w>
f ace</w>
vis it</w>
play er</w>
on ed</w>
k illed</w>
at ures</w>
Al l</w>
h on
i ther</w>
er a</w>
poin t</w>
ar i</w>
Eng land</w>
se arch</w>
gi ve</w>
S a
R ep
spec ial</w>
pu bl
li ving</w>
e w</w>
d ance</w>
b and</w>
J ain</w>
wor ks</w>
th em
t ogether</w>
Le ague</w>
v ol
sc ored</w>
or ity</w>
m other</w>
m a
simil ar</w>
k a</w>
fo otball</w>
d one</w>
F il
201 2</w>
pos ition</w>
m en
ab ility</w>
Q u
A k
si x</w>
pos sible</w>
N ag
star t</w>
p ay
inter national</w>
c are
Inter national</w>
in ated</w>
go ing</w>
T r
k ar</w>
an y
S ik
Coun ty</w>
C ha
G and
treat ment</w>
mon ths</w>
ist s</w>
em p
201 9</w>
politic al</w>
over ed</w>
it ary</w>
avail able</w>
as si
compl e
S at
s outh</w>
commun ity</w>
t oday</w>
R am
L i
plac es</w>
ne y</w>
c ase</w>
au gh
B y</w>
we st
od e</w>
m ot
g s</w>
d ru
typ e</w>
duc ed</w>
C ity</w>
w ide</w>
hal f</w>
W est
A n</w>
&apos; re</w>
sty le</w>
res ul
1 4</w>
nor th</w>
g er</w>
pol ice</w>
hum an</w>
fil ms</w>
201 1</w>
tak en</w>
M ic
av er
K al
os p
ex t
bl ood</w>
N ad
201 0</w>
pos iti
B ha
riv ers</w>
201 8</w>
w id
H indu
p at
if e</w>
Af ric
sh o
e ds</w>
C or
qu ar
pro bl
p i
olog ical</w>
le ge</w>
e k</w>
1 1</w>
ec ially</w>
au th
O ther</w>
serv ice</w>
div id
plac ed</w>
esp ecially</w>
es h
d on</w>
c ities</w>
spor ts</w>
it ing</w>
go t</w>
g es</w>
C l
l ist</w>
ha ving</w>
f re
un i
s il
n ec
lit er
re fer
iz ation</w>
U tt
ter m</w>
L ond
arch it
200 8</w>
n ight</w>
Kh an</w>
j ar
in iti
d en
celebr ated</w>
ab ad</w>
As s
19 3
mod ern</w>
lo t</w>
Wh ile</w>
vi ew
sign ific
l ost</w>
ab ly</w>
Lond on</w>
B l
si ons</w>
ast er</w>
sup port</w>
or ies</w>
develop ed</w>
ul t
t ro
ann oun
201 5</w>
tou ri
og n
U S</w>
A ir
icip ality</w>
i m</w>
high est</w>
he alth</w>
1 8</w>
1 6</w>
so on</w>
f ree</w>
O r
B ang
201 6</w>
tran s
ris k</w>
or d</w>
op s</w>
id s</w>
i ans</w>
gr ound</w>
g ave</w>
Mar ath
m oun
b oo
probl ems</w>
ous ly</w>
ed ed</w>
comp an
W ith</w>
Jap an</w>
tradi tional</w>
at or</w>
M al
ur ies</w>
s ay</w>
he av
buil ding</w>
ak a</w>
T o</w>
ear li
des ig
ar ies</w>
ste ad</w>
m it
l os
ev ents</w>
cl ub</w>
tom s</w>
t i</w>
e ve</w>
S w
s ent</w>
repor ted</w>
p ain
int ro
er v
west ern</w>
l a</w>
ong s</w>
i als</w>
h and
fin al</w>
c y
Sha h</w>
si m
se par
rul e</w>
hi m
gener al</w>
S un
P ur
E v
te ams</w>
su ff
la w</w>
id ence</w>
com b
b ar
inter est</w>
re st
W ar</w>
T ur
E mp
om et
l ate</w>
k il
H e
youn g</w>
su gg
d ate</w>
J oh
200 7</w>
w al
read y</w>
p ay</w>
S ar
H im
ur ed</w>
ru n</w>
ever y
M umb
I s
F rom</w>
h owever</w>
att le</w>
S we
se qu
iz e</w>
vi ew</w>
spec ies</w>
ro ad</w>
r ag
par ents</w>
a h</w>
Ch in
u es</w>
ne t
m er
g e
c amp
b en
ast y</w>
Austral ia</w>
4 0</w>
1 7</w>
ul arly</w>
sh ar
ne t</w>
in divid
am i</w>
G e
Cen tr
2 4</w>
se a</w>
pres ent</w>
l s</w>
l ook</w>
inv est
c le</w>
beli eved</w>
am ount</w>
al most</w>
Bud dh
An d</w>
r ap
p ow
m akes</w>
g ir
R o
G ames</w>
A sh
st om
pre sid
em pl
can not</w>
S ur
C ong
1 3</w>
ship s</w>
re spec
m ed</w>
f em
Emp ire</w>
r ing</w>
min utes</w>
form er</w>
ec tive</w>
b ook</w>
ag o</w>
Y or
P an
Nad u</w>
C E</w>
th ought</w>
rul es</w>
oun d
H y
un g</w>
lo ve</w>
if ic</w>
R us
Gu jar
Eu ro
yn asty</w>
play ing</w>
nat ural</w>
m os
cer tain</w>
canc er</w>
Raj as
partic ip
Punj ab</w>
st ation</w>
o ve</w>
le ast</w>
du ce</w>
th -
er al</w>
ch i
Mumb ai</w>
off ice</w>
o or</w>
archit ec
A sia</w>
gar h</w>
e ither</w>
E l
Ch ina</w>
typ es</w>
ter rit
sti t
M un
K rish
t our
sch o
s ev
str y</w>
ful l</w>
ampion ship</w>
rang e</w>
g ed</w>
est s</w>
b ar</w>
1 00</w>
rop e</w>
r ate</w>
ough out</w>
on ce</w>
con c
arm y</w>
an ted</w>
Govern ment</w>
w ood</w>
ri bu
fin anc
ac tion</w>
a -
West ern</w>
f ail
K ash
wor king</w>
serv ices</w>
i er</w>
d augh
P at
wor d</w>
ol e</w>
ograp h
in st
f ron
e um</w>
c iv
V ish
K ing</w>
x im
tic al</w>
ph ys
offic ial</w>
h ous
de t
c op
at trac
symp toms</w>
st ly</w>
sh ort</w>
sh a</w>
s ong</w>
s ays</w>
s af
lit tle</w>
it ems</w>
ch o
b an</w>
C up</w>
w in</w>
some times</w>
s even</w>
cul ture</w>
a p</w>
man ag
li es</w>
h ours</w>
g ri
S ince</w>
vir on
tem per
sy n
sel ves</w>
out side</w>
o l</w>
at e
W il
R es
rel ated</w>
produc ed</w>
op en</w>
om es</w>
n on-
m y
fes si
diff ic
bet ter</w>
H ol
F or
recor d</w>
mo ve</w>
cl ass
oo ds</w>
l d
l and
foun ded</w>
c ir
u n</w>
tem p
some thing</w>
le t</w>
it a</w>
gr ad
religi ous</w>
r an</w>
prov ide</w>
por ts</w>
p ing</w>
mil itary</w>
au ti
B al
s urr
part ment</w>
ch ec
Yor k</w>
K an
Euro pe
B har
w r
um ents</w>
mul ti
ha m</w>
T w
Par k</w>
1 3
p ot
nor m
lik ely</w>
includ ed</w>
en ch</w>
1 2
pu ter</w>
par ty</w>
fur ther</w>
ell ow</w>
S am
Pak istan</w>
w ife</w>
oun ds</w>
opp ing</w>
o res</w>
ke ep</w>
f our
&apos; ll</w>
id enti
care er</w>
0 ,000</w>
al es</w>
sc re
oc key</w>
l ow</w>
S y
G ar
p il
G ang
B el
s ac
cl aim
Bra h
200 9</w>
20 21</w>
vi de
t aking</w>
stud ents</w>
ri t</w>
ra di
includ es</w>
in n
grou ps</w>
com es</w>
F ort</w>
Chin ese</w>
play s</w>
j ects</w>
ad s</w>
R a
Kum ar</w>
m i</w>
eng th</w>
cl es</w>
admin istr
ac cording</w>
A ward</w>
ro om</w>
announ ced</w>
Rajas than</w>
Kash m
G o
rec ogn
r en
o id</w>
n ia</w>
Ger many</w>
A p
lin es</w>
har d</w>
er ous</w>
elev ision</w>
centr al</w>
ac hi
tow ards</w>
tour nam
ful ly</w>
f ol
continu ed</w>
c are</w>
m em
kil omet
k er</w>
exp en
1 9</w>
n ever</w>
l ab
ex pres
empl oy
b a
an k</w>
al ways</w>
wor ked</w>
sp read</w>
aver age</w>
S ec
G en
Chri sti
200 6</w>
1 4
el a</w>
de b
Th e
T u
wee k</w>
s ongs</w>
fi gh
ap pl
ap er</w>
Mahar ash
Hind i</w>
Gand hi</w>
E m
wom an</w>
high er</w>
we b
vi ol
m ental</w>
h osp
t ory</w>
st one</w>
langu ages</w>
hear t</w>
Musli m</w>
ver sion</w>
ti t
thr oughout</w>
sy m
s av
ow n
h u
f ar</w>
d le</w>
c ou
mat er
fri ends</w>
f arm
dic ated</w>
b ack
ab ove</w>
L ord</w>
Gujar at</w>
Cong ress</w>
sou thern</w>
perform ance</w>
mo stly</w>
associ ated</w>
ac y</w>
F o
se tt
nor thern</w>
en a</w>
ell ing</w>
direc ted</w>
cer em
T el
them selves</w>
ter ed</w>
p ast</w>
ess es</w>
Olymp ic</w>
th re
si b
scho ols</w>
qu es
pro te
id ent</w>
R om
sa w</w>
ne w
d a</w>
ch e
G ur
B as
enc ed</w>
e ast</w>
defe ated</w>
I m
ur ch</w>
success ful</w>
su s</w>
proc ess</w>
en viron
att ac
Fr ench</w>
st and</w>
sp ir
in side</w>
er ship</w>
im p
h ya</w>
go als</w>
financ ial</w>
2 3</w>
rele ase</w>
pr inc
est ed</w>
d ynasty</w>
appear ed</w>
T ri
I ts</w>
Americ a</w>
s qu
pro fessi
om b
il ities</w>
experi ence</w>
et ing</w>
c y</w>
c ut</w>
be auti
aj i</w>
Swe den</w>
th ink</w>
him self</w>
Ch and
C al
pur ch
main ly</w>
foll owed</w>
en ough</w>
cl ose</w>
chang es</w>
a id</w>
N ar
Maharash tra</w>
An g
w a</w>
sk in</w>
l ake</w>
as k</w>
ti g
c ar</w>
at temp
S .</w>
Eu rope</w>
vis ion</w>
te ach
t elevision</w>
soci ety</w>
roc k</w>
r ain
com puter</w>
ati ves</w>
T e
p ati
ow le
fir e</w>
ad dition</w>
C our
vir us</w>
pri v
me th
curr ent</w>
con cer
Europe an</w>
B C</w>
sh ows</w>
on line</w>
le t
i y
fun c
di a</w>
Can ada</w>
l ower</w>
g ets</w>
es tim
cen ter</w>
c am
b es</w>
al bu
ag re
ag ar</w>
un a</w>
t ain
produc tion</w>
j a</w>
de l</w>
b ers</w>
tradi tion</w>
sig ned</w>
perform ed</w>
p an
in e
br ought</w>
bir th</w>
Kashm ir</w>
n al</w>
ke ep
ad i</w>
y -
sh ot</w>
ol a</w>
g old</w>
b ac
al ready</w>
& #
&# 9
ru p
r .</w>
pre v
medic al</w>
le m</w>
h it</w>
d on
bu t
wh ite</w>
situ ated</w>
off er</w>
n e</w>
li am
d ings</w>
c il</w>
activ ities</w>
M o
D ay</w>
200 0</w>
wor ds</w>
ub lic</w>
kn owle
inf ection</w>
f ig
bi g</w>
S ult
Fr ance</w>
y al</w>
un g
ri gh
ol d
g et
elec tr
cl oth
as ons</w>
th ers</w>
t akes</w>
pre vi
n om
fam il
enti re</w>
el ected</w>
di tions</w>
d ou
C hi
200 1</w>
produc ts</w>
k ers</w>
i um</w>
f oc
ay a</w>
ad ded</w>
I l
z a</w>
v ely</w>
th ous
st ore</w>
st er</w>
pri m
og a</w>
lead ing</w>
er e
G h
sit es</w>
sc en
ra ised</w>
poin ts</w>
p rec
es sion</w>
c ast
Centr al</w>
s us
mar ket</w>
cat eg
B a
ut ure</w>
ur s</w>
n ar
C ali
tr a
sup por
stud y</w>
struc ture</w>
mov ement</w>
it es</w>
e astern</w>
beauti ful</w>
b ig
at ory</w>
anim als</w>
I tal
Cali for
ur a</w>
nat ure</w>
l or
j our
in stead</w>
daugh ter</w>
cu stom
con duc
Olymp ics</w>
x ed</w>
v acc
ide a</w>
g n
Pri me</w>
6 0</w>
occ as
it ation</w>
d ers</w>
an ese</w>
P or
Califor nia</w>
Afric a</w>
sm all
re ached</w>
histor ical</w>
gener ally</w>
ch em
ay ing</w>
V al
Ch il
re search</w>
pro per
port un
partic ularly</w>
jo ined</w>
indu stry</w>
direc tor</w>
compan ies</w>
camp a
2 6</w>
star s</w>
per cent</w>
li ves</w>
incre ased</w>
in ations</w>
ic ation</w>
h old</w>
en tion</w>
de ter
cle ar</w>
a war
Krish na</w>
200 5</w>
tr ade</w>
spec ific</w>
ro te</w>
om a</w>
oc r
o -
leg al</w>
l er</w>
centr e</w>
aff ected</w>
a ther</w>
U .
for ces</w>
el ection</w>
accoun t</w>
sh or
sh opping</w>
pur pos
pl ann
op portun
la un
end er</w>
c ells</w>
amp ;</w>
Ch ar
Al though</w>
& amp;</w>
ud e</w>
ti tle</w>
the ast</w>
erg y</w>
e ight</w>
complet e</w>
and y</w>
all owed</w>
H er
Di strict</w>
w rote</w>
ud d
r out
orig inal</w>
op h
me as
f -
di c</w>
att ack</w>
as ked</w>
A no
tr ack</w>
sec tion</w>
regi ons</w>
par ed</w>
in i</w>
hous es</w>
ex ist
ban k</w>
stand ing</w>
orig in
intro duced</w>
er ve</w>
pi ec
me an
f uture</w>
str ong</w>
stitu tion</w>
prob lem</w>
el ing</w>
e en</w>
com posed</w>
ad em
S im
Par ty</w>
Nep al</w>
Ge or
D ar
B r
t able</w>
signific ant</w>
re al
par k</w>
ow a</w>
incre ase</w>
ed ing</w>
bo ard</w>
Th en</w>
A sian</w>
A h
vide o</w>
sci enti
gen cy</w>
econom ic</w>
cont ribu
al though</w>
S ub
M c
A gr
sc ore</w>
s of
for ts</w>
f alls</w>
et c</w>
bro ther</w>
ph il
fron t</w>
fe atures</w>
con ver
chang ed</w>
ca uses</w>
bo x</w>
th a</w>
sing le</w>
per or</w>
ot e</w>
nec ess
ke ts</w>
k ind</w>
for ce</w>
con dition</w>
ac tive</w>
Him alay
Ev en</w>
B u
1 ,
t ar
stit ute</w>
r ich</w>
pro ject</w>
po or</w>
h ot
h ill</w>
ev idence</w>
er t</w>
de fin
d anc
ap e</w>
Shiv a</w>
P and
t old</w>
r am</w>
min d</w>
medi a</w>
h ind</w>
dec ided</w>
at ors</w>
M alay
E ach</w>
Bra z
2 8</w>
u als</w>
ra il
architec ture</w>
S um
S en
w a
us h</w>
od d
f av
e an</w>
bu d
beli eve</w>
U S
L ake</w>
Ano ther</w>
sour ce</w>
ha v
ev ol
er ation</w>
ed ul
ec h</w>
b al
as ing</w>
Th at</w>
Cour t</w>
As soci
s or
rul ed</w>
po st
j u
ig h</w>
h r
h an
g en</w>
di agn
ben ef
ac qu
ur i</w>
su per
stro ke</w>
sol di
retur n</w>
reg ular</w>
poin ted</w>
o ts</w>
dec lar
albu m</w>
Joh n</w>
2 7</w>
wh ole</w>
t est</w>
s a</w>
ric ket</w>
ec tions</w>
ar riv
a u</w>
I owa</w>
F ri
0 -
t ex
sh own</w>
rop ical</w>
ric ul
re ti
progr am</w>
ing ton</w>
S ou
M is
tur ed</w>
te e</w>
cul tural</w>
competi tion</w>
S al
typ ically</w>
ri g
ne igh
n av
it self</w>
fem ale</w>
f requ
de dicated</w>
B ur
rem ains</w>
o x
il le</w>
en jo
curr ently</w>
bre ak</w>
th y</w>
mun icipality</w>
go es</w>
f ever</w>
f are</w>
cre ate</w>
cour se</w>
be hind</w>
a il</w>
H ouse</w>
Be fore</w>
stric ts</w>
run s</w>
pl an</w>
ne ar
j e
ep h
as c
and a</w>
D em
wee ks</w>
vari ety</w>
sy st
prov ince</w>
ow ers</w>
op ened</w>
oo t</w>
loo king</w>
in come</w>
g est</w>
emb ly</w>
em a</w>
e at</w>
Un ion</w>
L ater</w>
D ut
um ent</w>
tr aining</w>
succ ess</w>
s em
pol ic
oun ded</w>
l at
is land</w>
indu stri
cont act</w>
construc tion</w>
con si
al ty</w>
U. S.</w>
2 9</w>
y an</w>
pro mot
n u</w>
m ing</w>
aj a</w>
ag ricul
K o
200 4</w>
un d
sur v
some one</w>
ri age</w>
presid ent</w>
ot ing</w>
op e</w>
hol id
fore sts</w>
fe et</w>
e es</w>
con f
V e
w il
sum mer</w>
p ul
di sp
T oday</w>
R ec
Buddh ist</w>
st age</w>
professi onal</w>
phys ical</w>
occ ur</w>
in ning</w>
in king</w>
ic an</w>
get ting</w>
fe el</w>
earli er</w>
com ing</w>
ap s</w>
B er
r ace</w>
publ ished</w>
pil gri
li ved</w>
ish ing</w>
bel ow</w>
Utt ar</w>
y ed</w>
heav y</w>
dra w
con ditions</w>
B est</w>
B ab
wat er
ur ity</w>
re ason</w>
le ave</w>
for d</w>
conn ected</w>
al and</w>
Vi j
F ed
wh ether</w>
r am
i or</w>
fi f
b ul
av ar
K ingdom</w>
Al i</w>
tr act</w>
med al</w>
i o</w>
di stri
G od</w>
wh y</w>
u v
tournam ent</w>
s le
pal ace</w>
o is</w>
ne eds</w>
independ ence</w>
ex ec
es tig
descri bed</w>
cent uries</w>
b ot
S ri</w>
Ph il
L ad
Com p
tre ated</w>
t ress</w>
mar k</w>
in scrip
ec ting</w>
Jap anese</w>
H er</w>
sp ok
im ag
di ver
dam age</w>
comm erc
c ra
b at
a ur
B ec
re gar
re ach</w>
en se</w>
el eph
diffic ult</w>
di stricts</w>
con fir
ch ing</w>
c all</w>
boo ks</w>
b rain</w>
ach es</w>
Sch ool</w>
K ath
8 0</w>
20 22</w>
20 0</w>
w anted</w>
nam es</w>
knowle dge</w>
d ar
b il
as p
row n</w>
righ ts</w>
pro g
oc k
los s</w>
ik a</w>
gre en</w>
ey e</w>
emp ire</w>
dom in
a g</w>
web site</w>
prim ary</w>
mis sion</w>
k ingdom</w>
fo rest</w>
devel op</w>
av ing</w>
ant ly</w>
acc ep
ac tor</w>
Mad hya</w>
Ar ab
1 .
st ing</w>
prac tice</w>
e th
div ided</w>
di t</w>
cl assi
and ed</w>
T im
P u
Ak bar</w>
vill ages</w>
val ue</w>
r ound</w>
ph ot
ne l</w>
m as
liam ent</w>
lev els</w>
g a</w>
ap pointed</w>
S i
K ore
Col lege</w>
up ta</w>
qu ality</w>
pr ice</w>
on ds</w>
n ation</w>
in t</w>
im medi
f ast</w>
do ing</w>
disc us
Fil m</w>
inv estig
com mon
c ost</w>
bu s</w>
bir ds</w>
ail y</w>
ac tu
Ac t</w>
t ains</w>
m ag
class ical</w>
V ir
H um
D iv
s old</w>
resul ts</w>
priv ate</w>
declar ed</w>
comm it
ar ts</w>
S ome
R an
Bang l
st op</w>
s ul
ro l
retur ned</w>
mi gr
lear n</w>
it am
fore ign</w>
exp ected</w>
ex per
clos ed</w>
ch i</w>
S har
E d
wh ose</w>
view s</w>
t y
st ores</w>
situ ation</w>
s n
requ ired</w>
repres ent
ow ned</w>
maj ority</w>
b ing</w>
ad vis
ad es</w>
S o</w>
M or
Ch an
B oth</w>
200 2</w>
up on</w>
prob ably</w>
mov ies</w>
ban ks</w>
a x
S ab
Associ ation</w>
z er
rel ation
opp ed</w>
ob al</w>
o on</w>
it em</w>
environ ment</w>
em or
charac ter</w>
W e
V a
H ill</w>
win ter</w>
ti al</w>
separ ate</w>
prov ided</w>
pl ants</w>
net work</w>
mat ches</w>
ic ations</w>
i b
h ills</w>
four th</w>
c ut
bl ack</w>
au ght</w>
territ ory</w>
t -
i -
gre at
c ur
ant a</w>
ann ual</w>
T V</w>
S r
F in
5 00</w>
y ellow</w>
writ ing</w>
tion ally</w>
pers on
ord ers</w>
long er</w>
di tional</w>
O ff
E ar
Al so</w>
v o
sch edul
partic ular</w>
o ds</w>
necess ary</w>
ne arly</w>
la w
ill ing</w>
end ra</w>
distri bu
claim ed</w>
br ing</w>
ar re
ak er</w>
G l
s pl
norm al</w>
ne eded</w>
mo del</w>
k i</w>
id a</w>
hel ped</w>
h an</w>
fic ation</w>
f ru
f ish</w>
en ergy</w>
e ful</w>
ak h</w>
ad ed</w>
A t
19 0
ur ban</w>
ther e
soldi ers</w>
r ice</w>
pres sure</w>
pl ant</w>
p sy
f ts</w>
and er</w>
Vish nu</w>
F ir
uni que</w>
ter ms</w>
s we
rec ent</w>
me t</w>
m ess
l ov
iti z
in te
i res</w>
av a</w>
anc y</w>
ak s</w>
Ch ampionship</w>
Austral ian</w>
wor ld
un c
touri st</w>
small er</w>
pers onal</w>
op pos
m enti
ir i</w>
individ ual</w>
fe der
ad op
Hindu s</w>
H igh</w>
sev ere</w>
oo d
lim ited</w>
grow th</w>
ay ed</w>
au di
The ir</w>
Kar nat
tr u
sh are</w>
qu es</w>
pres s</w>
occ up
min ute</w>
me et</w>
lin ois</w>
i ble</w>
fac t</w>
e tic</w>
di sha</w>
d ata</w>
cor por
common ly</w>
char ge</w>
cerem ony</w>
ak sh
Il linois</w>
A j
200 3</w>
199 9</w>
qu ick
occ urs</w>
n i</w>
iv es</w>
be ha
as i</w>
val ley</w>
syst ems</w>
recor ded</w>
prov ed</w>
positi ve</w>
p aid</w>
or ing</w>
jo b</w>
j ud
bor der</w>
beg inning</w>
ai pur</w>
T er
K ap
Gre ek</w>
tiv ely</w>
s tic
old est</w>
giv ing</w>
eff ects</w>
construc ted</w>
b ad</w>
Ger man</w>
Coun cil</w>
y et</w>
stu dies</w>
occ urr
k y</w>
h ands</w>
em er
der ed</w>
T ex
Musli ms</w>
In du
F I
stu died</w>
n ers</w>
hosp ital</w>
h us
att ention</w>
ail s</w>
ac ted</w>
W ind
V ic
P ad
udd in</w>
s i</w>
ris m</w>
num bers</w>
ne ws</w>
min ister</w>
mar riage</w>
k et
invol ved</w>
h ockey</w>
famil ies</w>
dru gs</w>
d es</w>
c ode</w>
bud get</w>
Sc i
B ro
B rit
A le
ser ve</w>
s ex
organ is
liter ature</w>
is l
ing u
in dic
fin ished</w>
eff ect</w>
comple x</w>
bu y</w>
br an
ath s</w>
Tw o</w>
J ah
D is
Chil dren</w>
C am
t ropical</w>
stor m</w>
n ative</w>
mor ning</w>
c row
ampion ships</w>
ain t</w>
ai m</w>
T i
M id
Karnat aka</w>
sub st
sp end</w>
run ning</w>
pro min
independ ent</w>
festiv als</w>
er ies</w>
co ast</w>
ath a</w>
under stand</w>
si ze</w>
sel f-
odd ess</w>
k ept</w>
iti s</w>
in str
ic o</w>
car d</w>
al ist</w>
al co
adi um</w>
ab or
M il
re al</w>
ph one</w>
orig in</w>
m ur
in di
es tic</w>
col on
c overed</w>
c ast</w>
appe ar</w>
E g
A wards</w>
vic tory</w>
tur n</w>
sch ol
recor ds</w>
re ign</w>
n ation
menti oned</w>
mean ing</w>
k l
il s</w>
hum ans</w>
h ou
ent ually</w>
desig ned</w>
ati s
all ow</w>
O disha</w>
M ex
Bangl adesh</w>
9 0</w>
199 8</w>
stor ies</w>
prov ides</w>
pass ed</w>
is lands</w>
fri end</w>
eff ective</w>
Sh ri</w>
R ob
M ys
Air port</w>
touri sts</w>
he al
for ced</w>
ex tre
erg ed</w>
eg et
cri tic
cont ains</w>
col lege</w>
chi ef</w>
ba by</w>
at eg
an al
Rep ublic</w>
Ch enn
Ass am</w>
year -
ven tion</w>
ta x</w>
re comm
quar ters</w>
le gen
laun ched</w>
k in
issu es</w>
influ ence</w>
em o
eas ily</w>
comple ted</w>
chec k</w>
beha vi
S te
K ol
Isl am
y m
we ar</w>
ud i</w>
it ors</w>
h om
en ess</w>
ell ed</w>
e ing</w>
de stro
ch amp
c in
anc tu
T ir
Sc ot
Gre at</w>
t op
sci ence</w>
religi on</w>
m el
hu ge</w>
consi sts</w>
campa ign</w>
c li
ar rang
air s</w>
R ed</w>
Gen eral</w>
19 th</w>
wor th</w>
sh all</w>
offic ials</w>
oc ks</w>
l ack</w>
itam in</w>
fi ght</w>
dec or
de st
buil d</w>
as hi
appe ars</w>
an ia</w>
A y
A D</w>
sec urity</w>
rece ive</w>
re -
lead er</w>
le ague</w>
h at
f el
Sult an</w>
D ur
D es
Agr a</w>
7 0</w>
y our
we ight</w>
tr ue</w>
t ell</w>
syn dro
re p
larg er</w>
l un
is tic</w>
import ance</w>
im pro
e k
d aily</w>
contro l
ch all
bri dge</w>
bac ter
b our
ad ditional</w>
H a
D av
Ar my</w>
A ur
ul ts</w>
tw are</w>
t an
st ay</w>
sp ace</w>
si x
quick ly</w>
de g
de ep</w>
cou ple</w>
ati c
al am</w>
V ar
Marath a</w>
M iz
K ab
Govern or</w>
ul p
th west</w>
sur g
sh r
rail way</w>
pre gn
om ing</w>
l ow
ex ten
enc our
b attle</w>
ay er</w>
ast s</w>
Tex as</w>
N et
Mah al</w>
M oh
x ing</w>
vis ited</w>
stat us</w>
prev ent</w>
foll ow</w>
fer ence</w>
dise ases</w>
disc overed</w>
d ates</w>
con qu
ch an
al ized</w>
M at
Eg yp
Dem ocr
Chenn ai</w>
ti ll</w>
te en</w>
se x</w>
rul ers</w>
re port</w>
re placed</w>
p ass</w>
es day</w>
buil dings</w>
b s</w>
Bec ause</w>
B ir
B an
world wide</w>
u l</w>
sim ple</w>
sa ve</w>
ro yal</w>
pow er
opportun ity</w>
in ary</w>
K e
Fri day</w>
Brah m
your self</w>
v eget
v ar
un iver
t ation</w>
st er
re ve
m ale</w>
issu e</w>
holid ay</w>
hi ma</w>
en ter
ed y</w>
de but</w>
d riv
cl us
ar ing</w>
acc ess</w>
S ang
Mys ore</w>
Man i
Ch urch</w>
wid ely</w>
th us</w>
ta x
t our</w>
s ell</w>
ri se</w>
me eting</w>
m ach
ic ity</w>
hel ps</w>
fl ic
end ar</w>
c aves</w>
adem y</w>
Por tu
M aj
Comp any</w>
tre at</w>
ti s</w>
syndro me</w>
sup pl
star ts</w>
rem ained</w>
r ural</w>
oll y
happ y</w>
g an</w>
fl ows</w>
figh ting</w>
en s
direc t</w>
charac ters</w>
c o</w>
bec omes</w>
auth or
ati vely</w>
ar m</w>
Wh at</w>
W om
W ik
P a
F A</w>
An dh
we alth</w>
tri ed</w>
tiv al</w>
sur face</w>
rop s</w>
re ally</w>
o il</w>
lead ers</w>
it age</w>
ac her</w>
F es
tran sm
t ree</w>
s un
pro mis
pot ential</w>
l ength</w>
im pl
h u</w>
giv es</w>
direc tly</w>
de partment</w>
Ma ur
Braz il</w>
sym b
sour ces</w>
sc ulp
refer red</w>
ra ther</w>
produc t</w>
ot a</w>
off ers</w>
m outh</w>
ess ed</w>
elec tions</w>
dist ance</w>
contin ent</w>
con s
c ros
c itiz
big gest</w>
ac ting</w>
Pol ice</w>
P o
K ann
K am
Fir st</w>
D ep
Ch ola</w>
2 .
z e
v ia</w>
u tive</w>
ther ap
temper ature</w>
spe ak</w>
ro r</w>
ov ers</w>
organ ized</w>
num erous</w>
kilomet res</w>
f y</w>
dru g</w>
dr y</w>
confir med</w>
coll ection</w>
cl ass</w>
ay ers</w>
an as</w>
Ro ad</w>
xim ately</w>
wee k
tr ying</w>
r are</w>
p aper</w>
invest ment</w>
hus band</w>
contin ue</w>
bo dies</w>
beg ins</w>
b al</w>
ang e</w>
air port</w>
Some times</w>
S m
Pro v
L u
L o
y ana</w>
wr ite</w>
win ning</w>
t un
sh e
rul er</w>
on ic</w>
on a</w>
ol ic</w>
moun tain</w>
mar ks</w>
har a</w>
g ent
fl ow</w>
farm ers</w>
dis h</w>
bas ic</w>
awar ded</w>
Wind ows</w>
H igh
Aur ang
we ap
v ille</w>
techn ology</w>
st opped</w>
qu al
pro duce</w>
prac tic
pl e
organ iz
olly wood</w>
ligh ts</w>
hr u</w>
estim ated</w>
ess or</w>
commerc ial</w>
activ ity</w>
ach al</w>
Sum mer</w>
San sk
Ne hru</w>
Mu k
tre es</w>
thous ands</w>
the at
p un
ok a</w>
ograph y</w>
ob served</w>
met ers</w>
loc ation</w>
inj ury</w>
id ing</w>
i el
hi b
con v
ar ity</w>
al ed</w>
ac tions</w>
Th ir
Mus eum</w>
1 st</w>
1 -
tur ned</w>
pl an
pati ents</w>
ol den</w>
l u
il a</w>
ic a</w>
h our</w>
fe ature</w>
d -
commun ities</w>
civ il</w>
ast e</w>
al one</w>
Nep ali</w>
Mani pur</w>
M y
y as</w>
t ells</w>
respon sible</w>
rem ain</w>
relation ship</w>
k ings</w>
is es</w>
b ase</w>
ak ers</w>
administr ation</w>
ad ing</w>
Wom en</w>
K u
Fed eration</w>
w it
st -
spec i
sen se</w>
previ ous</w>
positi ons</w>
pl ans</w>
o es</w>
gr and
ey es</w>
ef forts</w>
charac ter
cen sus</w>
ca ve</w>
ap ur</w>
an ish</w>
Pal ace</w>
Brit ain</w>
Bi har</w>
Af gh
suppor ted</w>
sib ility</w>
si on
s li
om s</w>
mus ical</w>
igh ts</w>
est ing</w>
dec ision</w>
coun ty</w>
bur g</w>
aut y</w>
ab les</w>
R ay</w>
H ills</w>
Chri st
199 6</w>
year- old</w>
ti n</w>
respon se</w>
re ly</w>
r ates</w>
purpos e</w>
pro f
let ter</w>
k en</w>
istr y</w>
gener ation</w>
ex erc
complet ely</w>
cloth es</w>
clim ate</w>
b a</w>
Gr ou
3 5</w>
3 1</w>
urr ic
trav el</w>
techn i
squ are</w>
se arch
of t</w>
in -
ent ary</w>
e th</w>
de al</w>
d own
cha e
c oo
arre sted</w>
am ed</w>
S il
Par liament</w>
N o</w>
N A
M ag
D S</w>
us tice</w>
p ain</w>
or a</w>
mat ter</w>
hou se
ch ess</w>
beg in</w>
M and
Fes tival</w>
E S
ti l
sof tware</w>
per f
p ost</w>
m it</w>
m and
in sur
expen ses</w>
equ ip
c ro
any thing</w>
an s
On ce</w>
In do
E astern</w>
Ass embly</w>
Ac ademy</w>
2 -
y oga</w>
ug u</w>
progr ams</w>
m al
li sted</w>
iv ing</w>
h ic
for ward</w>
eas y</w>
celebr ate</w>
ac e
Sik k
Se a</w>
B ay</w>
Andh ra</w>
sus p
ro les</w>
ri ve</w>
new sp
man aged</w>
hy dro
h ot</w>
es cap
en th</w>
en e
bro ad
ab ies</w>
Z e
T re
Sansk rit</w>
Hy der
G an
De partment</w>
C ath
sp ot</w>
sid es</w>
sho oting</w>
se ts</w>
re asons</w>
g ar</w>
fol k</w>
f le
d ang
c ricket</w>
arti sts</w>
V is
U p
K umb
Is land</w>
199 5</w>
- day</w>
stre am</w>
str a</w>
rec ently</w>
qu ite</w>
op ening</w>
m ut
le aves</w>
immedi ately</w>
fil e</w>
er n
em ic</w>
ed om</w>
de fic
civ il
be auty</w>
as sist
ad d</w>
accoun ts</w>
a is
An and</w>
Ab out</w>
wor ship</w>
wor kers</w>
v itamin</w>
tradi tions</w>
teach ers</w>
te sts</w>
sub ject</w>
spok en</w>
off ered</w>
mid dle</w>
com pared</w>
cal endar</w>
anim al</w>
S up
S everal</w>
P re
B et
w ell
spe ed</w>
s end</w>
re vol
k ms</w>
h ost</w>
ev entually</w>
en ter</w>
en sive</w>
de aths</w>
car ried</w>
al -
Mun icipality</w>
M ay
Islam ic</w>
Can adi
tal k</w>
sec ond
sac red</w>
res our
earli est</w>
d y</w>
con flic
as a</w>
ari an</w>
ac es</w>
T est</w>
M y</w>
3 -
w alls</w>
t ained</w>
near by</w>
multi ple</w>
mon soon</w>
m ol
gre w</w>
el op
deg ree</w>
d i</w>
bl es</w>
al ore</w>
ak h
Val ley</w>
Utt ar
N o
M ur
Di rec
B ag
18 5
war a</w>
tro ops</w>
t ext</w>
st on</w>
sp ent</w>
sist er</w>
on n
n ov
m om
ing ly</w>
inc ident</w>
happ ened</w>
el i
dist inc
develop ing</w>
col or</w>
cal cul
bro thers</w>
anc ed</w>
alay a</w>
Tel ugu</w>
O ver</w>
tow ns</w>
ro ads</w>
re duce</w>
purch ase</w>
prot ect</w>
promin ent</w>
par ti
ip p
ho l</w>
fin ally</w>
em ia</w>
econom y</w>
de ad</w>
co ach</w>
ay an</w>
Su ch</w>
Me gh
Inter net</w>
Hyder abad</w>
Gur u</w>
20 th</w>
z ed</w>
y outh</w>
w all</w>
ut ers</w>
um p</w>
u bl
succ e
star ting</w>
res ol
not ed</w>
mar ked</w>
in struc
emer gency</w>
di al
deter min
car ry</w>
appro ximately</w>
amm ad</w>
ac tress</w>
T ar
Sikk im</w>
J o
F lor
Chi ef</w>
Cen ter</w>
C .</w>
tex ts</w>
str ateg
s y</w>
reg ul
re pe
pur a</w>
p age</w>
mo on</w>
mar tial</w>
m ob
hol ds</w>
exc ept</w>
every one</w>
en e</w>
d ly</w>
d am</w>
categ ory</w>
c old</w>
b att
at ri</w>
Rus sia</w>
Is ra
199 2</w>
w el
vis ions</w>
tri but
sing er</w>
se t
psy ch
li qu
inte gr
go al
gir l</w>
direc tion</w>
diagn os
consid er</w>
ch ampionship</w>
af f</w>
Th ere
T aj</w>
Mic ros
J ew
Go a</w>
D har
C ap
7 5</w>
2 n
viol ence</w>
ve hic
s ons</w>
ri es</w>
repres ented</w>
opp on
kilomet ers</w>
happ en</w>
h ood</w>
go d</w>
gir ls</w>
ent ation</w>
ear s</w>
co ast
cl in
c ell</w>
adv ant
ach ing</w>
R ail
Mex ico</w>
J aipur</w>
Ital y</w>
In stitute</w>
Dut ch</w>
B or
5 -
te acher</w>
s now</w>
n ine</w>
ish es</w>
is sion</w>
he at</w>
fer red</w>
fac ilities</w>
f ell</w>
cre dit</w>
ak sha
Wil li
P ul
N ic
Micros oft</w>
Lad akh</w>
J amm
H all</w>
Com mit
Bud d
B omb
1 ;</w>
&#9 1;</w>
ven ue</w>
us eful</w>
tran sl
ter y</w>
sup ply</w>
str ength</w>
sh op</w>
s ound</w>
s aying</w>
pre par
loc ality</w>
it t
di e</w>
des ign</w>
deb t</w>
bil lion</w>
an th
al ter
U r
Nor thern</w>
I V</w>
Grou p</w>
Geor ge</w>
De v</w>
Ch al
A R
197 0s</w>
v an</w>
tr ain</w>
st ar</w>
ser ious</w>
par ties</w>
origin ally</w>
li g
lear ning</w>
in stitu
happ ens</w>
grow ing</w>
er i</w>
do or</w>
cl aim</w>
c over</w>
c over
av oid</w>
ar tic
ant i</w>
all ed</w>
W ar
St ation</w>
R oy
Ma ha
M el
Fo otball</w>
u fac
r as</w>
pl at
pe ace</w>
ol der</w>
ne g
manag ement</w>
le ts</w>
k h
individ uals</w>
im a</w>
i ency</w>
dec re
co sts</w>
bo at</w>
bi o
b ow
av i</w>
ann er</w>
T ul
S en</w>
N ow</w>
M od
J am
3 ;</w>
2 ,
&#9 3;</w>
well -
up per</w>
temper atures</w>
sty les</w>
st ated</w>
sh if
ret ary</w>
rain fall</w>
pres ence</w>
hab it
h omes</w>
g ain</w>
fail ed</w>
dr ama</w>
di g
d oll
commun e</w>
ch ron
ad ults</w>
Rus sian</w>
Ra o</w>
On ly</w>
M r.</w>
Jamm u</w>
H on
3 .
199 3</w>
youn ger</w>
writ er</w>
w ind
urric ane</w>
su e</w>
ri c</w>
re bel
pres sion</w>
pilgri m
manag er</w>
i et</w>
he ight</w>
ex tra</w>
ear ch</w>
destro yed</w>
des p
bus in
W in
S an</w>
Ma hab
M ore</w>
J al
Isl ands</w>
Ear th</w>
D h
Commit tee</w>
4 5</w>
2n d</w>
wal k</w>
u ated</w>
t es</w>
stand ard</w>
sec tor</w>
sc ale</w>
sal es</w>
re ver
re fl
pos s
por ary</w>
ne u
l ac
ide as</w>
histor ic</w>
g row</w>
f ought</w>
f ing
ep tion</w>
dem on
ch ance</w>
cap tured</w>
b le
accep ted</w>
M i
L ank
L a
Indo -
Hol i</w>
Ar gent
uc le
repor ts</w>
pen alty</w>
mid -
meth od</w>
m ine</w>
l og
im age</w>
g as</w>
co ins</w>
c rops</w>
ang a</w>
actu ally</w>
ac ts</w>
a ward</w>
a e</w>
Sun day</w>
S pe
Rom an</w>
Pr ague</w>
J os
Bomb ay</w>
Ash oka</w>
t ings</w>
stud ent</w>
sim ply</w>
sett l
read ing</w>
progr amm
power ful</w>
piec e</w>
perform ances</w>
or am</w>
oppos ite</w>
occas ion</w>
mov ing</w>
m ic
l in</w>
k ill</w>
ir rig
high ly</w>
gu n</w>
gl obal</w>
f illed</w>
ex change</w>
er -
dev ot
com pos
c ot
ag g
ac ity</w>
V ik
S id
I ran</w>
Chan di
Ale x
194 7</w>
we ather</w>
v a</w>
us ual</w>
th es
spir it
sc oring</w>
s is</w>
rest aur
occurr ed</w>
inj uries</w>
ha y
great est</w>
fel t</w>
dom estic</w>
d ens</w>
cri p
c ash</w>
bec oming</w>
N av
M ir
199 7</w>
regi onal</w>
re duc
r d</w>
p it
mit ted</w>
m agn
la ws</w>
ir s</w>
head quarters</w>
fig ure</w>
fail ure</w>
eng ine
con centr
T or
T an
S erv
J er
F C</w>
Beng ali</w>
st ep
sig n</w>
re ment</w>
pay ment</w>
our ed</w>
oth er
offic ers</w>
iy ar</w>
fre edom</w>
demon str
d in
celebr ation</w>
ber g</w>
W ash
R ic
Qu een</w>
Par is</w>
Mon day</w>
Li ke</w>
L ou
H am
Em peror</w>
B CE</w>
3 00</w>
18 6
ze b</w>
sub -
st aff</w>
sex ual</w>
r on</w>
oper ation</w>
on to</w>
mil es</w>
is ing</w>
esp ite</w>
el ess</w>
e igh
dre ds</w>
attac ks</w>
alco hol</w>
Rep ubl
O f</w>
Kore a</w>
Dev elop
D espite</w>
Christi an</w>
um s</w>
to m</w>
sub continent</w>
se y</w>
oun ding</w>
man ufac
m ar</w>
k es</w>
insur ance</w>
i rit</w>
govern or</w>
est er
co -
ast ing</w>
ap u
ann a</w>
af ter
W al
T B</w>
Sp anish</w>
R am</w>
Mu h
K ur
Har yana</w>
Aurang zeb</w>
Afric an</w>
A mon
t in
st ations</w>
st ands</w>
rout e</w>
pri s
pl eas
p ig
od h
mi xed</w>
it able</w>
impro ve</w>
d life</w>
ar ms</w>
al ism</w>
a us
S he
Ne ther
M ed
L oc
Himalay as</w>
H ockey</w>
B ad
y er</w>
tou rism</w>
sil ver</w>
sel ected</w>
s am
s al</w>
pilgrim age</w>
phil os
mon uments</w>
ma xim
kl ah
klah oma</w>
inf ected</w>
incre asing</w>
f r
est er</w>
equip ment</w>
differ ence</w>
cor rec
anctu ary</w>
all ows</w>
Ve dic</w>
Th r
Raj a</w>
O klahoma</w>
Nether lands</w>
L uc
Buddh ism</w>
18 8
w ise</w>
there fore</w>
tain ment</w>
r av
mus eum</w>
min or</w>
mater ial</w>
kin ds</w>
jour ney</w>
jo in</w>
influ enced</w>
ear th
dr inking</w>
continu es</w>
be at</w>
as ks</w>
Th ree</w>
S ol
S k
Kap oor</w>
K en
Com mun
4 -
199 4</w>
y o</w>
w an</w>
ub s</w>
rac es</w>
prov inc
prog ress</w>
on ia</w>
il i
ha ir</w>
g ur
foc us</w>
fe at
f er</w>
ef s</w>
cont ain</w>
con st
author ities</w>
attemp t</w>
an o</w>
ag ing</w>
Ch ampionships</w>
198 0s</w>
w rest
u ted</w>
ro m
ques tions</w>
per form</w>
mus ic
mater ials</w>
ed a</w>
di vision</w>
control led</w>
Wash ington</w>
US A</w>
St .</w>
Portu gu
J es
J ag
D r.</w>
D am
Ch hat
A v
A th
&apos; ve</w>
we d
ur am</w>
te a</w>
suff ered</w>
st ers</w>
respec t</w>
res h</w>
pre -
pain tings</w>
on e-
n ic</w>
mol ec
me an</w>
mar ily</w>
it ter</w>
issu ed</w>
inscrip tion</w>
ill er</w>
func tion</w>
fa ir</w>
every thing</w>
el se</w>
don es
desp ite</w>
cle an</w>
ch urch</w>
appear ance</w>
an -
Ze aland</w>
Sr in
Roy al</w>
In dones
He alth</w>
Dev i</w>
Cor por
3 rd</w>
tri c</w>
su ic
st ac
ric s</w>
r hy
pro jects</w>
plann ed</w>
piec es</w>
nom inated</w>
li ons</w>
ip al</w>
in sp
in fl
im ages</w>
en tered</w>
disc i
dis order</w>
contro ver
cont ent</w>
cap acity</w>
br on
b on</w>
ah o</w>
Vic tor
R aj</w>
Muh ammad</w>
Megh alaya</w>
M as
Ital ian</w>
H an
Chandi garh</w>
18 9
z ha</w>
ul a</w>
tw ice</w>
t ol
sp ending</w>
ri f
requ ire</w>
prot ection</w>
proper ty</w>
m ir
m as</w>
inv as
hol y</w>
foun d
f ine</w>
doc tor</w>
bl ue</w>
av as</w>
aut om
Y am
Va ish
U d
There fore</w>
Kh o</w>
Isl am</w>
Div ision</w>
B ank</w>
Al la
198 7</w>
wor ship
un ion</w>
thr one</w>
th i</w>
surr ounded</w>
sequ ently</w>
scen e</w>
saf ety</w>
s ung</w>
resour ces</w>
ph ere</w>
not e</w>
min im
identi fied</w>
f oot</w>
er able</w>
e ating</w>
conduc ted</w>
con sist
clim bing</w>
cho ose</w>
champ ion</w>
be d
bas in</w>
T ip
Sw it
Per sian</w>
N A</w>
Dav id</w>
Ch ic
B ah
y l
w ind</w>
w al</w>
us ers</w>
uc k</w>
therap y</w>
st ood</w>
scrip t</w>
resid ents</w>
pr in
over y</w>
ob serv
medic ine</w>
m ist
it or</w>
in ing</w>
fl owers</w>
fl o
f ro
ev al</w>
em peror</w>
ear ned</w>
cut ta</w>
cra ft</w>
citiz ens</w>
bro ke</w>
agre ement</w>
T al
R os
Portugu ese</w>
K un
J ust</w>
Com m
Cal cutta</w>
Amon g</w>
wh om</w>
v oc
tu al</w>
th ly</w>
territ ories</w>
sum ed</w>
ste p</w>
sh ire</w>
sh ape</w>
s ent
pr ices</w>
polic y</w>
pl ains</w>
met al</w>
mar k
l ess
exper im
ev ening</w>
e i</w>
dra w</w>
dep ic
can di
bir th
b it</w>
adop ted</w>
ab i</w>
a head</w>
Tr av
T ran
Sp ain</w>
S ports</w>
N at
M ak
J ames</w>
Flor ida</w>
199 0</w>
t ours</w>
t ac
sk ills</w>
sh ops</w>
pri me</w>
pri marily</w>
offic er</w>
od es</w>
n ucle
mess age</w>
et ro
depend ing</w>
com edy</w>
chae ological</w>
Mid dle</w>
J ay
C y
B ollywood</w>
199 1</w>
wat ers</w>
st ock</w>
sing ing</w>
sh ap
scre en</w>
re moved</w>
popul arity</w>
pol o</w>
p oll
om as</w>
mov ements</w>
met res</w>
ish ment</w>
ic ient</w>
i j
gre ater</w>
g ro
g ath
fac tors</w>
ep is
ent y</w>
ent ure</w>
enc ies</w>
con stitu
chall eng
c .</w>
au l</w>
ast ed</w>
add ress</w>
ad ver
Swit zer
Sat ur
M os
Car n
2 5
0 0
v ary</w>
tr ou
surg ery</w>
re views</w>
ques tion</w>
prot ected</w>
pre me</w>
pat ter
part ner</w>
organ ization</w>
o y</w>
n am</w>
loo ks</w>
k id
it als</w>
im m
hear d</w>
ha i</w>
gen ous</w>
g oods</w>
fif th</w>
extre m
expen sive</w>
exam ples</w>
ent ing</w>
el ements</w>
det ails</w>
de ity</w>
cin ema</w>
car ved</w>
bo y</w>
b ill</w>
agricul ture</w>
W at
V er
Th ough</w>
Switzer land</w>
Republ ican</w>
M ot
Indu s</w>
H u
Bel gi
At l
A I
198 0</w>
vis itors</w>
vacc ine</w>
tran sport</w>
sk y</w>
se ems</w>
se at</w>
se asons</w>
previ ously</w>
por tion</w>
per man
oun ts</w>
l es
high -
g ing</w>
fin ds</w>
e z
dom s</w>
d ated</w>
cy cl
comp uters</w>
c as
be y
arriv ed</w>
al ities</w>
Tri pura</w>
Res earch</w>
P ic
Ne w
K on
I d
Fr anc
Dec can</w>
Bang alore</w>
un its</w>
tr aff
ti le</w>
st ret
sp on
ref ers</w>
recogn ized</w>
re a</w>
or dered</w>
o o</w>
mor t
legen d</w>
lead s</w>
l ic
is ation</w>
il ed</w>
fo ot
ext ended</w>
car s</w>
c e
av as
ath ing</w>
appro pri
an sw
Sab ha</w>
Miz oram</w>
I O
Fil m
Chic ago</w>
C re
Bo ard</w>
weap ons</w>
v ot
tri bes</w>
spirit ual</w>
sol ution</w>
re duced</w>
p ool</w>
or al</w>
m ay
initi ally</w>
h ur
h op
defe at</w>
cy cle</w>
con tract</w>
comb ined</w>
ay an
as is</w>
ar r
an ch
al ists</w>
Me dic
M ount</w>
H ow</w>
G ul
F re
F oll
D ue</w>
Corpor ation</w>
Canadi an</w>
B ul
Al a
techni ques</w>
te sted</w>
stic k</w>
spe ech</w>
so il</w>
sh owed</w>
schol ars</w>
s -
reti red</w>
recomm ended</w>
not es</w>
moun tains</w>
ly ing</w>
li fe
ket ball</w>
if y</w>
h ang
grow n</w>
enjo y</w>
en tr
des c
custom ers</w>
cre ating</w>
car ds</w>
bo xing</w>
ari o</w>
app ed</w>
ang ana</w>
an ity</w>
al li
agricul tural</w>
U K</w>
Hindu ism</w>
G a
E very</w>
tri al</w>
sugg ested</w>
su n</w>
set ting</w>
rel atively</w>
plann ing</w>
organ ised</w>
leg isl
ill ness</w>
g oddess</w>
ca using</w>
c overs</w>
b andy</w>
ay ana</w>
as tic</w>
al ing</w>
a wards</w>
R ama</w>
R ag
O p
K ul
Egyp t</w>
C iv
w ants</w>
vo ice</w>
un iversity</w>
t uring</w>
st um
sp ar
scienti sts</w>
s h</w>
s at
ros se</w>
ph y</w>
oper ating</w>
not able</w>
molec ul
mem ory</w>
me ant</w>
m ass</w>
lin ked</w>
le aving</w>
l ose</w>
keep er</w>
institu tions</w>
inj ured</w>
ig n
hun dreds</w>
ho sted</w>
g am
cir c
b ought</w>
ar am</w>
ab use</w>
St re
N D
Mus ic</w>
I II</w>
F l
Develop ment</w>
D u
C A
4 th</w>
195 6</w>
18 th</w>
sy l
saf e</w>
s ar</w>
rhy th
pres sed</w>
ou l
op tion</w>
neg ative</w>
lin ed</w>
ir man</w>
ic ate</w>
fl oo
fiel ds</w>
fac ed</w>
cul osis</w>
cl ubs</w>
bey ond</w>
bacter ia</w>
b id</w>
St adium</w>
S in
S er
Per iyar</w>
Mugh als</w>
Kumb h</w>
Bl ack</w>
6 5</w>
3 2</w>
198 4</w>
ys is</w>
un it</w>
tit ude</w>
sp ring</w>
schedul ed</w>
rit ual</w>
res ent
rem aining</w>
re sist
r or
proc e
n y</w>
m ent
k m
k -
invol ves</w>
g un
g ained</w>
ear th</w>
do g</w>
diffic ul
defic iency</w>
cloth ing</w>
cle an
chem ical</w>
bran ch</w>
bo l</w>
ac id</w>
Wik i
Vir g
Shiv aji</w>
S oci
Malay alam</w>
L os</w>
Jah an</w>
Indi ans</w>
H or
E ver
D on
Chal uk
C a
Ang el
197 1</w>
te en
struc tion</w>
s ounds</w>
pow ers</w>
pic ture</w>
pass eng
p ut
no thing</w>
n in
mon thly</w>
iz ing</w>
im prov
heal thy</w>
hab ad</w>
g ros
ex ist</w>
en sure</w>
diagnos ed</w>
con su
col our</w>
bas is</w>
associ ation</w>
ail ed</w>
agre ed</w>
Win ter</w>
Sh ank
Qu e
M ang
Lank a</w>
Himalay an</w>
Gr and</w>
Film fare</w>
E aster</w>
B 12</w>
Ala uddin</w>
4 00</w>
wat ch</w>
w an
t aught</w>
sur pri
success fully</w>
sav ings</w>
s mo
s ale</w>
resul ted</w>
respec tively</w>
keep ing</w>
instr uments</w>
hi c</w>
equ al</w>
earth qu
dis play</w>
coast al</w>
call s</w>
be t</w>
aw are</w>
attac ked</w>
as an</w>
al y
aff ect</w>
ad or</w>
Tur k
Su n</w>
Sik h</w>
Sen ate</w>
R at
R ad
N ik
Kann ada</w>
K or
H ist
Afgh an
198 2</w>
197 2</w>
16 th</w>
trav el
tr o</w>
tiv ity</w>
stat ue</w>
pro posed</w>
pe dia</w>
p a</w>
ou d</w>
ob s</w>
mil k</w>
l -
k ing
k ata</w>
it ya</w>
in ks</w>
ill a</w>
es ides</w>
dre w</w>
br and</w>
bel ong
bal ance</w>
an ate</w>
administr ative</w>
W ater</w>
Tip u</w>
Sp ec
P all
Maj or</w>
M ela</w>
M ac
Americ ans</w>
6 -
z one</w>
win ds</w>
ur s
to x
ri d</w>
ra w</w>
pre ad</w>
os en</w>
ob j
meas ures</w>
li ber
irrig ation</w>
h s</w>
fri end
es ha</w>
dr ed</w>
competi tions</w>
char ged</w>
ch an</w>
benef it</w>
audi ence</w>
attrac tion</w>
any one</w>
add i</w>
Th ose</w>
T ou
San j
S ov
P ac
I ra
F i
D al
Budd ha</w>
B en
Au stri
An n
A ir</w>
wil d</w>
vic tim
us ion</w>
se as</w>
s atis
ret in
ref used</w>
politic s</w>
ong side</w>
o v</w>
n ations</w>
meth ods</w>
li ver</w>
le tt
inter esting</w>
ind a</w>
imp act</w>
igh t
gu ide</w>
gar den</w>
frequ ently</w>
feder al</w>
f all
ess ential</w>
electr icity</w>
dro p</w>
div or
dam aged</w>
con serv
com par
cerem on
ati n</w>
ate au</w>
at en</w>
ar h</w>
ag ers</w>
Y our</w>
Tur ner</w>
P rem
N am
Me an
M ake</w>
J ain
I S
E r
D en
Ap ple</w>
Afghan istan</w>
w on
tran spor
row s</w>
re land</w>
ox y
oc ked</w>
o to</w>
o gi
my th
mus cle</w>
men tion</w>
maxim um</w>
li st
lead ership</w>
larg ely</w>
gi ft</w>
foun der</w>
fl oor</w>
ef fort</w>
ec t
dou ble</w>
der ived</w>
dec ades</w>
cul tiv
cre d
com pri
coll ected</w>
ar g
advant age</w>
Re gi
P y
P R
I reland</w>
B hima</w>
198 8</w>
thous and</w>
the ory</w>
su st
ro b
res sed</w>
pre pared</w>
phil is</w>
pati ent</w>
ow ns</w>
ot t
jour n
inscrip tions</w>
initi al</w>
inf ections</w>
erv o
cr ore</w>
bir d</w>
b on
ann ed</w>
Th us</w>
T ok
St u
Sou thern</w>
Satur day</w>
Rep resent
Rail way</w>
Prov ince</w>
Mean while</w>
Gang es</w>
Foll owing</w>
Carn atic</w>
A z
3 0
199 0s</w>
18 7
15 0</w>
vis iting</w>
ut y</w>
uc ky</w>
the astern</w>
sym bol</w>
su gar</w>
sle ep</w>
sh el
s and
res ses</w>
re v
re search
over all</w>
offic ially</w>
m al</w>
is ol
insp ired</w>
industri es</w>
fig ures</w>
esh war</w>
ech an
e ties</w>
conflic t</w>
ch ur
categ ories</w>
achi eved</w>
ac tors</w>
a c</w>
Y oga</w>
Uttar ak
Un der</w>
Tim es</w>
Tel angana</w>
R ang
Pan ch
K a
Cl ub</w>
Alla habad</w>
3 3</w>
we ak
under standing</w>
typ ical</w>
tradi tionally</w>
str ong
shar es</w>
ri er</w>
philos oph
pe ak</w>
ob jects</w>
mis sion
i k</w>
hun dred</w>
gu il
fac es</w>
evol ution</w>
del iver
dec ide</w>
char ges</w>
ch osen</w>
b abies</w>
artic le</w>
appropri ate</w>
anc hay
acqu ired</w>
a ar</w>
Wiki pedia</w>
Tu esday</w>
S el
P i
P en
Or gan
Nag aland</w>
E duc
Con stitution</w>
Christ mas</w>
Ch it
3 6</w>
198 9</w>
wid es
suic ide</w>
str u
spe aking</w>
reve aled</w>
rag upta</w>
ra ise</w>
pay ing</w>
mos qu
mach ine</w>
m ac
ly rics</w>
in sul
in corpor
ific ation</w>
ide al</w>
h aps</w>
es n</w>
bri de</w>
ar ia</w>
Victor ia</w>
R ash
N ot</w>
L it
L im
K ir
Ch and</w>
C el
3 4</w>
196 4</w>
wor n</w>
win ner</w>
victim s</w>
th- century</w>
stor ed</w>
star red</w>
spl it</w>
sp r
shar ed</w>
sch em
pro per</w>
pri son</w>
norm ally</w>
mar ble</w>
lear ned</w>
j ee</w>
il legal</w>
i di
gi a</w>
emo tional</w>
do esn</w>
bro ken</w>
ap ers</w>
ab sor
ab and
W ith
Tok yo</w>
T ig
Sha k
Sec retary</w>
R eg
K n
J e
F ur
Char les</w>
Bhar at
B us
Angel es</w>
A T
197 9</w>
197 6</w>
wides pread</w>
v ast</w>
un able</w>
ul ture</w>
ul ation</w>
ter min
t ong
t end</w>
stat ement</w>
sc ar
s .</w>
row ing</w>
produc er</w>
particip ated</w>
or i</w>
ob ject</w>
liqu id</w>
lett ers</w>
le ag
industri al</w>
h il
fic ial</w>
f ic</w>
experi enced</w>
exc ell
ex pos
em ed</w>
dh ood</w>
de v</w>
cul ar</w>
classi fied</w>
ch ip
celebr ations</w>
bu tt
behavi or</w>
asp ects</w>
al ongside</w>
ab ilities</w>
S ank
Off ice</w>
In stead</w>
Hy der</w>
Ch ess</w>
Argent ina</w>
A S
8 5</w>
7 th</w>
6 4</w>
5 5</w>
198 3</w>
- -</w>
wed ding</w>
ush ed</w>
un known</w>
tw el
su it</w>
st ered</w>
sec onds</w>
pres ented</w>
or ial</w>
nor theast</w>
mun icip
medi um</w>
li e</w>
j ew
iz es</w>
impl em
imm une</w>
hy per
hot el</w>
head ed</w>
fun d</w>
exist ing</w>
eleph ants</w>
el im
du r</w>
doc um
dec is
cul tures</w>
c a</w>
aw a</w>
ann ually</w>
al leg
ak k
ag s</w>
a v</w>
S on
Pri th
N i
Marath as</w>
L ook</w>
L ah
Jes us</w>
High way</w>
H en
FI FA</w>
Democr atic</w>
D om
D est
z z
wr ong</w>
w ash
tu ber
resul ting</w>
radi o</w>
r ains</w>
pregn ancy</w>
ph ase</w>
p ill
organiz ations</w>
o ch
mis sed</w>
inter ested</w>
inf ra
id ents</w>
fun ds</w>
f resh</w>
er ia</w>
conc ept</w>
compe ted</w>
chan nel</w>
bu ying</w>
as hi</w>
appe al</w>
al p
ab et
V id
Uttarak hand</w>
Raj put</w>
Him achal</w>
H us
H ere</w>
Gang a</w>
Cath olic</w>
Air lines</w>
. .</w>
ter nal</w>
su d
str a
sp er
shor t
sen ior</w>
purpos es</w>
pu zha</w>
pre domin
neigh bor
mas sive</w>
lo an</w>
leag ues</w>
la id</w>
it ting</w>
ir a</w>
in o</w>
il ing</w>
har v
extrem ely</w>
ess ing</w>
em erged</w>
elec tric</w>
el i</w>
dis orders</w>
d rop
d ar</w>
cor ner</w>
colon ial</w>
bo ats</w>
be l</w>
at ra</w>
al d</w>
Willi am</w>
Su preme</w>
Sov iet</w>
Pat el</w>
O ur</w>
L eg
Kol kata</w>
Gh ats</w>
G upta</w>
Ch at
Bha g
B attle</w>
Am bed
Ah med
4 8</w>
y ro
tion ary</w>
sp irit</w>
sig ns</w>
se e
respon sibility</w>
repres ent</w>
regar ded</w>
re stric
prov iding</w>
per ial</w>
ol ogi
o x</w>
mob ile</w>
me ets</w>
iti ve</w>
indi genous</w>
in ia</w>
gu ar
g ate</w>
fi xed</w>
er r
dr am
del ta</w>
dang erous</w>
conqu ered</w>
comb ination</w>
chil dhood</w>
bron ze</w>
ber t</w>
b all
av ah
at mos
architec tural</w>
appl ication</w>
ak ar
acc ident</w>
S tr
S amb
P ublic</w>
Min istry</w>
M ul
M ath
H al
D o</w>
A ra
3 ,
197 5</w>
wal king</w>
w oo
tw o-
tri bal</w>
traff ic</w>
to il
str eng
ri a</w>
rang es</w>
r is</w>
perman ent</w>
pass ing</w>
o tic</w>
m echan
ist ers</w>
har d
f at
ex ams</w>
em ph
dic tion</w>
d u</w>
con trac
comm od
cer ti
ain ts</w>
aff ects</w>
a f</w>
Serv ice</w>
Pak ist
L in
D o
Ar ch
A g
8 th</w>
7 .
4 2</w>
1 1
wor k
ver sions</w>
ti li
tax es</w>
sti c</w>
sou thwest</w>
s ound
requ ires</w>
rec ip
princ ipal</w>
p ath</w>
p ack
ow ner</w>
ord inary</w>
op tions</w>
n erve</w>
mic ro
medi eval</w>
med als</w>
m erged</w>
loo ked</w>
ligh tly</w>
l ag
found ation</w>
foll ows</w>
et c.</w>
employ ees</w>
dr ink</w>
disci pl
dec line</w>
custom er</w>
co stum
chang ing</w>
busin esses</w>
bl ed</w>
ap ore</w>
al ties</w>
ad ult</w>
ac compan
Th omas</w>
T echn
In f
Her itage</w>
G i
C z
Ambed kar</w>
9 9</w>
198 6</w>
198 5</w>
196 9</w>
w ins</w>
ty ph
tri p</w>
tournam ents</w>
tion ed</w>
su ally</w>
sh owing</w>
reti rement</w>
prote in</w>
pre mi
practic es</w>
ou ts</w>
ok er</w>
newsp aper</w>
neigh bour
mo tion</w>
long -
j ur
house hold</w>
fem ales</w>
feat ured</w>
exist ence</w>
er ves</w>
er ate</w>
en try</w>
en ge</w>
ear n</w>
doc tors</w>
cri tics</w>
cri min
conn ect</w>
circ um
b ound
b one</w>
ay un</w>
ass es</w>
and ing</w>
ak ed</w>
ag iri</w>
Y ear</w>
S ir</w>
R ah
N ig
Marath i</w>
M ass
L atin</w>
K ish
Isra el</w>
Indones ia</w>
D .</w>
Com mon
C ro
C ricket</w>
5 0
3 7</w>
17 th</w>
wil dlife</w>
w er</w>
tic ally</w>
ti les</w>
th inking</w>
te sting</w>
si t</w>
sem i-
sec re
rec i
por tr
pic k</w>
p as
orig inated</w>
off ee</w>
n or</w>
k illing</w>
it ely</w>
inst alled</w>
i ya</w>
hol ding</w>
h ope</w>
g le</w>
for c
f ill</w>
exp anded</w>
diagn osis</w>
descri be</w>
ch a</w>
cam p</w>
bre aks</w>
back ground</w>
avas kar</w>
ath i</w>
amb a</w>
achi ev
U sually</w>
Stre et</w>
Sat avah
S om
P aul</w>
O ld</w>
K ha
Hum ayun</w>
G avaskar</w>
F ar
D ha
C O
196 0s</w>
194 8</w>
y ar</w>
y am</w>
war i</w>
w ish</w>
vis ible</w>
tr y
tong ue</w>
tis sue</w>
ter ror
sy philis</w>
st an</w>
si ties</w>
s ation</w>
regar ding</w>
r ying</w>
pos sib
peri ods</w>
over ty</w>
ough ts</w>
or ds</w>
k ar
it ted</w>
govern ments</w>
fl ag</w>
expres s</w>
enti ally</w>
dist ingu
determin ed</w>
descri bes</w>
dem and</w>
defin ed</w>
cre ation</w>
comm emor
arti st</w>
am ounts</w>
adv ance</w>
Yam una</w>
Virg inia</w>
Vij ay</w>
U N
Tu gh
R u
Punj abi</w>
N a
L aksh
G olden</w>
Christi ans</w>
Chhat tis
C aves</w>
C E
An dam
A rea</w>
4 0
- language</w>
view ed</w>
tr ained</w>
sugg ests</w>
shr ine</w>
se em</w>
se eing</w>
ris h</w>
rac ing</w>
pl ane</w>
op en
og s</w>
nar row</w>
mov es</w>
leg s</w>
go ds</w>
gi fts</w>
g one</w>
fin als</w>
f ishing</w>
escap e</w>
es sions</w>
er ry</w>
eas ier</w>
draw n</w>
di d
d y
c aught</w>
br ary</w>
an j
all owing</w>
a o</w>
Shar ma</w>
Pro duc
K ad
H IV</w>
G ov
Direc tor</w>
C er
B re
B il
5 th</w>
197 8</w>
we aring</w>
ut en
tr ains</w>
to -
surr ounding</w>
succe eded</w>
stre et</w>
sl ow</w>
serv es</w>
re view</w>
re r</w>
pic tures</w>
oxy gen</w>
or g
nucle ar</w>
lim it</w>
ing ing</w>
ing a</w>
infra structure</w>
f oods</w>
exten sive</w>
experi ences</w>
exerc ise</w>
eth nic</w>
ec tor</w>
ec e</w>
deter mine</w>
col ors</w>
c ross</w>
az ine</w>
atic ally</w>
as king</w>
arti cles</w>
an tic</w>
adv ice</w>
acc ept</w>
Wh ite</w>
V as
Th urs
S ud
S ind
Pr ince</w>
Pr inc
Mic ha
Man ip
L ist</w>
G oo
E con
Co st
Centr e</w>
Ba ha
7 9</w>
7 2</w>
197 0</w>
wrest ling</w>
wh ere
wh e
ul tim
ul i</w>
th al
st able</w>
se ek</w>
s ever
s en</w>
s an
reg ularly</w>
pres ent
particip ate</w>
off ering</w>
o ke</w>
mis sing</w>
m ic</w>
l i</w>
j obs</w>
is si
ir on</w>
im mun
ig ns</w>
hi l</w>
gg le</w>
g ana</w>
et ings</w>
en em
differ ences</w>
di o</w>
dev ice</w>
dep ends</w>
d rive</w>
cre w</w>
conver ted</w>
con sol
c ow</w>
c av
bo ys</w>
aw s</w>
att ached</w>
ar t
appro ach</w>
ap ply</w>
ac har
abet es</w>
ab led</w>
Thurs day</w>
N ations</w>
Malay sia</w>
Mad ras</w>
L ar
Joh n
Id aho</w>
H el
Car ol
B ach
6 th</w>
twel ve</w>
tis m</w>
thes is</w>
struc tures</w>
stre ets</w>
step s</w>
sou theast</w>
s elling</w>
s ary</w>
res ervo
pay ments</w>
opportun ities</w>
magn ific
k ha</w>
i est</w>
hon our</w>
go ti
form al</w>
f light</w>
dr a</w>
distribu tion</w>
coll ap
col ours</w>
cle arly</w>
cho ice</w>
b ow</w>
aw a
att ribu
ath y</w>
W ed
Sim il
Sec ond</w>
Scot land</w>
Phil ipp
P une</w>
N az
Mic hi
I r
El ec
Econ om
Chand ragupta</w>
C lar
Arab ian</w>
8 -
3 9</w>
198 1</w>
wind ow</w>
week end</w>
w ali</w>
umb ent</w>
tiv es</w>
ti ous</w>
swe et</w>
suppor ting</w>
sugg est</w>
serv ing</w>
s lightly</w>
rit uals</w>
regi stered</w>
qu ali
pris on
pre p
oppon ent</w>
oper ations</w>
ol f</w>
nar r
l akes</w>
je eling</w>
j unc
iel d</w>
identi fy</w>
her o</w>
func tions</w>
fru it</w>
for tun
fav or
fac tor</w>
expres sed</w>
est -
eleph ant</w>
dest ination</w>
decor ated</w>
de pos
con tr
compe te</w>
cap tain</w>
c ab
bor ders</w>
bas ketball</w>
b y
av an</w>
ath an</w>
ap par
adv anced</w>
ad o</w>
W ales</w>
Vaish nav
V en
St an
Sing apore</w>
Sci enti
R em
Prith vir
Off ic
Ne ws</w>
Nar ayan</w>
Mahab har
K ent
G or
F alls</w>
Dar jeeling</w>
Ch amp
Bach chan</w>
B at
Ar k
A part</w>
3 8</w>
197 4</w>
195 0s</w>
wit n
wat i</w>
ut t
tuber culosis</w>
tit les</w>
thre at
teach ing</w>
stit utes</w>
sound track</w>
sl ow
sho ts</w>
sen si
se l</w>
schedul e</w>
promot ed</w>
prep are</w>
perf ect</w>
pat ron
op position</w>
ograph ical</w>
occup ied</w>
mom ent</w>
mod els</w>
main tained</w>
m anner</w>
loc ations</w>
lin k</w>
j an</w>
invas ion</w>
inst ance</w>
in ner</w>
her itage</w>
floo ding</w>
ev es</w>
et ts</w>
et a</w>
encour aged</w>
earthqu ake</w>
di et</w>
cri tical</w>
coun cil</w>
cont ain
chur ches</w>
ch ol
awar eness</w>
auth ority</w>
att ended</w>
ar ily</w>
ain e</w>
achi eve</w>
O f
Manip uri</w>
M oun
K ang
J ustice</w>
In stac
G ame</w>
D on</w>
Christi anity</w>
Chhattis garh</w>
Ch er
Ar ound</w>
A li
197 7</w>
we b</w>
th yro
te dly</w>
st ages</w>
se ats</w>
sculp tures</w>
scienti fic</w>
res sive</w>
religi ons</w>
ra il</w>
put ting</w>
p ac
no oker</w>
ne goti
n on
los ing</w>
king doms</w>
it an</w>
ish op</w>
is on</w>
intro duc
in spir
grad ually</w>
fe ar</w>
f ashi
f al
ex hib
diver sity</w>
di visions</w>
desig n
danc ers</w>
cu is
coun ter
cor rup
claim s</w>
ch ester</w>
c offee</w>
big ger</w>
attemp ts</w>
ap ati</w>
am me</w>
all -
ak esh
ag u
ad y</w>
ad m
acc ur
a str
a an</w>
Ter rit
Pul akesh
Pakist ani</w>
N iz
N H
Mahar aja</w>
F ame</w>
Educ ation</w>
Common wealth</w>
C oll
Bet ween</w>
4 3</w>
196 0</w>
1 ,000</w>
y st
vir tu
v ote</w>
st adium</w>
sol ar</w>
ru ins</w>
polic ies</w>
pic ious</w>
o k</w>
inv ited</w>
incre ases</w>
imag ination</w>
hi k
ha g
h urricane</w>
grad u
gen etic</w>
fu n</w>
fin ding</w>
expos ure</w>
exp an
eff ec
driv ing</w>
distribu ted</w>
dig ital</w>
de pression</w>
cre ative</w>
cour ts</w>
correc t</w>
commit ted</w>
c ep
benef its</w>
beli ef</w>
and i</w>
an us</w>
aksha gana</w>
ad ap
S ri
Pulakesh in</w>
Prem ier</w>
Pe ter</w>
Pand ya</w>
Michi gan</w>
Micha el</w>
Kent ucky</w>
Instac art</w>
G oddess</w>
En ter
De ep
Ch am
C O</w>
Bi g</w>
B un
Ahmed abad</w>
y ard</w>
vi ve</w>
ut ri
ul ate</w>
ud a</w>
ti ger</w>
ti an</w>
theat re</w>
te ach</w>
ta il</w>
suff ering</w>
st am
sou l</w>
se as
s and</w>
represent ative</w>
radi ation</w>
r ar
pu ts</w>
person ality</w>
pass es</w>
p ath
od a</w>
nov el</w>
mus cles</w>
loc ally</w>
l ung</w>
l l
investig ation</w>
inter pre
inter ests</w>
inn ings</w>
in de
il ian</w>
ic h
fa ir
distinc t</w>
di sh
dev ices</w>
d or
coun try
chron ic</w>
bur gh</w>
bot tom</w>
au r</w>
att u</w>
ass embly</w>
arm a</w>
anc est
aly mp
ach us
accompan ied</w>
ac commod
a on</w>
Wed n
T ak
Shi m
R ani</w>
Pol o</w>
Par alymp
Pac ific</w>
O per
O F</w>
N aw
Mass achus
L ab
I D
Ha asan</w>
G al
F L</w>
Baha dur</w>
Am b
Alex ander</w>
9 5</w>
7 4</w>
6 00</w>
4 4</w>
197 3</w>
z o
tru th</w>
tra um
tar get</w>
t ario</w>
sub jects</w>
stru ggle</w>
sac rif
quali fied</w>
pu s</w>
promot e</w>
present -day</w>
pre val
pal aces</w>
p air</w>
p ages</w>
ong st</w>
o ids</w>
mon ument</w>
main tain</w>
li p
lat ter</w>
l al</w>
is s</w>
ing eri</w>
id er</w>
hear ing</w>
gr anted</w>
gar dens</w>
f ellow</w>
ext ent</w>
ex clus
enti rely</w>
el ings</w>
ed ge</w>
du ty</w>
dom inated</w>
did n</w>
devot ees</w>
des ert</w>
depend ent</w>
cor d</w>
cop y</w>
cont em
conn ection</w>
commit tee</w>
cha in</w>
ch ann
b ills</w>
ar gu
app reci
anal ysis</w>
am ongst</w>
ali ve</w>
Y akshagana</w>
Sanj ay</w>
R ev
On tario</w>
Massachus etts</w>
H un
F ore
F am
E arly</w>
C urr
An c
A ri
8 6</w>
tr as</w>
th western</w>
t all</w>
sh oot</w>
sal t</w>
re venue</w>
pri or</w>
pig s</w>
or i
oo th
m ast
land sc
j ected</w>
j ac
inf ants</w>
ic ks</w>
ha ji</w>
gr and</w>
figh ters</w>
fe eling</w>
excell ent</w>
er ved</w>
el lig
e try</w>
dou b
deliver y</w>
dar k</w>
d river</w>
d ges</w>
d ances</w>
concer ns</w>
conc ern</w>
car bon</w>
c ell
be gun</w>
att end</w>
arrang ed</w>
an am</w>
air ed</w>
ag ree</w>
ad ers</w>
actu al</w>
acc used</w>
Wedn esday</w>
Tre at
Sr ingeri</w>
S pr
S ad
Represent atives</w>
R oh
Pur i</w>
K ush
K at
J a
H osp
Geor gia</w>
G ood</w>
F ound
E s
Ch op
Ch ol
C u
B eg
9 th</w>
war m</w>
um e</w>
tri gg
tr ading</w>
tor ies</w>
sett led</w>
second -
se where</w>
s ought</w>
requ est</w>
rec ep
rebel lion</w>
re plac
re aches</w>
pol y
pain ting</w>
n ath</w>
mot or
m es</w>
lun gs</w>
j um
it i</w>
inter net</w>
h all</w>
g ender</w>
foll owers</w>
fl ying</w>
fe wer</w>
fe elings</w>
fa ith</w>
f it</w>
evol ved</w>
es war</w>
ent ers</w>
en za</w>
eg gs</w>
educ ational</w>
ed ly</w>
d ating</w>
cont aining</w>
concer ned</w>
comp on
bl ock</w>
b ra
ann iver
ann ing</w>
Un like</w>
Tw itter</w>
T radi
Sult anate</w>
Sm ith</w>
S eries</w>
Par v
O b
N ir
M er
Li ber
L am
Goo gle</w>
F ace
D an
Co ast</w>
C r
8 3</w>
196 6</w>
vir uses</w>
u k</w>
sw im
subst ance</w>
sol id</w>
sist ers</w>
s ick</w>
ro y
ro oms</w>
repres ents</w>
ref er</w>
rece iving</w>
quar ter</w>
provinc es</w>
proper ties</w>
plat form</w>
pit ch</w>
p overty</w>
out break</w>
n ur
music ians</w>
mon ast
minim um</w>
mi x
m ang
long est</w>
let es</w>
iv al</w>
in ate</w>
hi bi
hi a</w>
ha z
h in
g all
fl ood</w>
fir m</w>
f ly</w>
ester day</w>
ep ing</w>
eng ine</w>
e er</w>
diver se</w>
descri p
cot ton</w>
con ven
com for
class es</w>
cha irman</w>
cent ers</w>
c os
auth or</w>
ath le
ari b
apu tra</w>
ap uram</w>
ap art</w>
al ry</w>
Sik hs</w>
S qu
R ai</w>
Mahabhar ata</w>
Leg isl
Kore an</w>
Kab addi</w>
Jew ish</w>
Ira q</w>
In c
Gl obal</w>
Face book</w>
D or
Cz ech</w>
Col umb
B ol
A N
A .
5 2</w>
v ey</w>
ul ated</w>
u tions</w>
the tic</w>
th or
th ank
st ones</w>
st ances</w>
slow ly</w>
ship ping</w>
shap ed</w>
ro se</w>
philosoph y</w>
ph en
pe ti
op per</w>
ologi sts</w>
mot or</w>
it ch
ir ing</w>
inter nal</w>
in tr
hydro gen</w>
gr an
goal keeper</w>
form ing</w>
f lights</w>
f f</w>
ex act</w>
ev il</w>
er ly</w>
eng u
enc ing</w>
e ous</w>
dic t</w>
de ar</w>
commun ication</w>
cent res</w>
bur ied</w>
at ever</w>
arm ed</w>
anti bio
al ised</w>
Y oun
V ä
Soci ety</w>
S oon</w>
R adi
Kh al
I s</w>
D am</w>
Com mission</w>
Carol ina</w>
Ara b</w>
9 -
5 ,000</w>
4 6</w>
0 .
writ ers</w>
wa it</w>
w are</w>
u d</w>
tr ust</w>
thre e-
th us
suff icient</w>
six th</w>
sit ting</w>
signific antly</w>
settl ement</w>
sequ ence</w>
sec tions</w>
ro pol
resist ance</w>
rel ations</w>
refer ence</w>
pers ons</w>
orig ins</w>
medic ations</w>
m ales</w>
l am
it r
in habit
hor ses</w>
gr am</w>
gl ass</w>
fin ish</w>
et te</w>
depend ence</w>
d ur
con clud
clin ical</w>
ch er</w>
ble eding</w>
aut onom
anniver sary</w>
ali k</w>
al ization</w>
ag ement</w>
ac ute</w>
T ro
T ower</w>
Sar as
S anctuary</w>
Rec ords</w>
Rash tr
R ud
Pri ze</w>
P ort</w>
P enn
O x
N an
L a</w>
Jain ism</w>
J ud
I A</w>
G op
Found ation</w>
Dur ga</w>
Di ff
C ri
C B
B e</w>
B andy</w>
Anc ient</w>
Al l
196 8</w>
12 th</w>
v ac
uni or</w>
tur ns</w>
tou ch</w>
sup posed</w>
sum m
si vely</w>
second ary</w>
scen es</w>
s ar
ris ing</w>
restaur ants</w>
rem ember</w>
ran ked</w>
pr ayers</w>
po et</w>
pe t</w>
ol i</w>
o g</w>
mu d</w>
magnific ent</w>
legen ds</w>
le ys</w>
in au
i to</w>
hol e</w>
her self</w>
har m
h am
g or
exc av
environ mental</w>
en h
de gre
de bu
danc ing</w>
cri sis</w>
chann els</w>
ch ose</w>
bus y</w>
be ach</w>
b alls</w>
atmos phere</w>
ang al</w>
ail and</w>
a x</w>
V iv
Th ailand</w>
Sup er</w>
S l
Pro f
Oc ean</w>
O S</w>
Me h
Lo k</w>
J ack
E N
Chop ra</w>
B ush</w>
7 3</w>
4 7</w>
4 .
196 5</w>
- based</w>
z es</w>
z en</w>
we ak</w>
vol un
vehic les</w>
v an
us er</w>
transpor tation</w>
t ar</w>
stri ke</w>
separ ated</w>
sav ing</w>
rout es</w>
retur ns</w>
reg im
r ati
pro pos
pro p
post -
pilgri ms</w>
over seas</w>
ou ld
ob ar</w>
n ic
mil lions</w>
me at</w>
instruc tions</w>
hur t</w>
fir st-
fing er</w>
fe e</w>
ex ists</w>
epis ode</w>
e uten
di r</w>
degre es</w>
de als</w>
controver si
contem porary</w>
col or
co m</w>
clos ely</w>
bre aking</w>
be an</w>
al k
ag on
ab s
ab ar</w>
R af
Prithvir aj</w>
P ong
Of ten</w>
Medic al</w>
Mar k</w>
M an</w>
K y
Indi ra</w>
I T</w>
Gre en</w>
D a
Cha k
Ch ow
Ad v
8 7</w>
4 ,
196 7</w>
viol ent</w>
u pl
transm ission</w>
tom b</w>
t ala</w>
symb ols</w>
syl v
sugg es
struc k</w>
spok es
sp inal</w>
re pl
re ality</w>
proper ly</w>
princ i
po etry</w>
pl ain</w>
p y
p p
oc y
oc rac
no tice</w>
n i
molecul es</w>
l ingu
k hand</w>
int ellig
i ously</w>
ho sts</w>
famil i
extre me</w>
exist ed</w>
ev a</w>
engine ering</w>
em an</w>
el ig
ec k</w>
doll ars</w>
dis aster</w>
del iv
d ay
crow d</w>
con ference</w>
candi date</w>
c ue</w>
c ru
bo o</w>
b un
b ad
attrac ted</w>
appl ied</w>
ang ir</w>
an mar</w>
air craft</w>
ag ara</w>
R en
Pad ma</w>
N arm
Mah at
K ut
H aw
D r
Columb ia</w>
Brahm aputra</w>
Ar un
Andam an</w>
A tt
8 8</w>
6 1</w>
196 3</w>
195 2</w>
194 9</w>
15 th</w>
woo den</w>
web sites</w>
vehic le</w>
ul l</w>
ug gl
u ity</w>
typh oid</w>
tribut ary</w>
tri bu
t es
t elling</w>
t ask</w>
stor age</w>
st ayed</w>
rem emb
rel atives</w>
re fu
re action</w>
ra id</w>
pregn ant</w>
possib ly</w>
ph oto</w>
perform ing</w>
p and
own ers</w>
ough ly</w>
new ly</w>
mur der</w>
mp tion</w>
mil d</w>
mer ch
law yer</w>
ju dic
j ail</w>
iv al
it ra</w>
inhabit ants</w>
ific ally</w>
head s</w>
ha k
guil ty</w>
gr av
govern ing</w>
fl owing</w>
fl at</w>
fir ed</w>
fi re
ff al
f ran
f aster</w>
f asc
f ans</w>
exec utive</w>
ex ac
e ball</w>
divor ced</w>
di pl
di abetes</w>
de struction</w>
cred ited</w>
con sec
col itis</w>
cl ause</w>
bre ak
birth day</w>
b omb
b anned</w>
attrac tions</w>
ath letes</w>
ap proved</w>
ap a</w>
ans as</w>
anal y
all i</w>
a z</w>
Un der
T y
T om
Scienti sts</w>
Nag a</w>
Lah ore</w>
In iti
F e
D ig
Civ il</w>
C I</w>
Ark ansas</w>
An im
8 4</w>
8 2</w>
4 1</w>
treat ments</w>
trans fer</w>
th oughts</w>
techn ical</w>
t al</w>
star ring</w>
sp ots</w>
sn ow
roc ks</w>
ro man
ric k</w>
prote sts</w>
pr int</w>
pl us</w>
p ure</w>
ous ness</w>
org ans</w>
on ing</w>
n utri
n as
loc k</w>
liter ary</w>
int ell
in her
ic ated</w>
hon or</w>
grap h
gr ade</w>
g olden</w>
g al</w>
f iv
design ated</w>
cor on
coo king</w>
comb at</w>
br inging</w>
avar ia</w>
arti ficial</w>
Vi et
Tig er</w>
Ti bet
T enn
St ar</w>
Sci ence</w>
S and
S af
My anmar</w>
M en
K as
J ais
I ran
G w
Diff er
De f
B ill</w>
B avaria</w>
5 7</w>
wor st</w>
vis ual</w>
val ues</w>
tre as
te eth</w>
t um
t ab
symb ol
sylv ania</w>
stor ms</w>
sev enth</w>
scre ens</w>
s ession</w>
s aint</w>
rem ote</w>
reli ef</w>
rece ives</w>
pr ayer</w>
port ers</w>
p raised</w>
other wise</w>
op posed</w>
og ue</w>
man age</w>
le -
lac rosse</w>
l ers</w>
inter view</w>
friend ly</w>
fil es</w>
fac tion</w>
f ou
es see</w>
enter tainment</w>
ec ture</w>
dis sol
dev o
defe ating</w>
danc er</w>
cro p</w>
cri me</w>
coun ter</w>
conduc t</w>
ch ampionships</w>
cast e</w>
bl ing</w>
b ands</w>
av ati</w>
assist ance</w>
assi sted</w>
am boo</w>
al pur</w>
ab ol
Z am
W o
Thr ough</w>
Ric hard</w>
P ra
Muk her
M et
H ou
Ex press</w>
Di wali</w>
C ent
C at
Bu il
A .</w>
9 8</w>
9 2</w>
7 1</w>
196 2</w>
195 4</w>
14 th</w>
1 000</w>
w ishes</w>
um an</w>
tribut aries</w>
thus i
th ro
sub ur
spe akers</w>
shar ing</w>
schem e</w>
s as</w>
ro ll</w>
ri de</w>
represent ing</w>
reg ard</w>
re aching</w>
r anti</w>
or ney</w>
ol es
offic es</w>
ocrac y</w>
newsp apers</w>
n agar</w>
low -
le g</w>
lat est</w>
l asted</w>
int ended</w>
in ity</w>
i onal</w>
farm ing</w>
euten ant</w>
etro it</w>
er os
engu ins</w>
end ul
discus s</w>
daugh ters</w>
conf idence</w>
comfor table</w>
co ord
ch in</w>
ag ent</w>
Trav el</w>
T yp
St ud
Srin iv
Sou theast</w>
S av
R avi</w>
Penn sylvania</w>
P itt
P esh
Legisl ative</w>
Jer sey</w>
I N
Ed ward</w>
D etroit</w>
6 .
4 9</w>
195 7</w>
13 th</w>
univer sities</w>
tow ard</w>
th row</w>
strateg y</w>
st ress</w>
sk i</w>
signific ance</w>
si ght</w>
se es</w>
s war
s tim
s ang</w>
ru b
ro ots</w>
resid ence</w>
re move</w>
rap id</w>
r o</w>
r ak
pri est</w>
presid ential</w>
poss ession</w>
per haps</w>
par ks</w>
p oc
origin ates</w>
no tic
near est</w>
n ima</w>
meas ure</w>
ma p</w>
ma il</w>
m m</w>
m aster</w>
k ick</w>
in s
han dic
gu ard</w>
form ally</w>
fac ts</w>
ev ant</w>
ev ac
establ ish</w>
end ers</w>
ell er</w>
ell a</w>
el ed</w>
dec ides</w>
cover ing</w>
cont est</w>
con stitution</w>
classi fication</w>
bus es</w>
bour ne</w>
aw n</w>
att a</w>
ar rest</w>
ar aja</w>
ant on</w>
ag ra
ag er</w>
adv enture</w>
ach i</w>
V r
U l
U k
Ro y</w>
R is
P ath
Narm ada</w>
Lou is</w>
Hist or
Hen ry</w>
H ot
H indi
Gre ece</w>
C amp
Braz ilian</w>
B ow
B ay
Am rit
A ff
9 1</w>
7 -
5 6</w>
195 8</w>
194 6</w>
18 0
war ri
up s</w>
tri be</w>
ti ed</w>
thre at</w>
th od
surv ived</w>
subst anti
sub sequently</w>
stre ams</w>
stra ight</w>
sequ ent</w>
rap id
prot est</w>
pe ac
passeng ers</w>
or ball</w>
o e</w>
nor thwest</w>
lab el</w>
l ay</w>
km 2</w>
k ne
k ite</w>
jo int</w>
j un
is tics</w>
influ enza</w>
in et</w>
immedi ate</w>
i i</w>
heav ily</w>
har mon
gu it
govern ed</w>
gen re</w>
ful l-
foc used</w>
fl ora</w>
fe eding</w>
f arm</w>
exec uted</w>
et anus</w>
end ants</w>
en thusi
emp ty</w>
e ge</w>
def ensive</w>
dec ade</w>
debu ted</w>
de al
d ress</w>
d ney</w>
cuis ine</w>
con vic
com position</w>
circum stances</w>
bro ad</w>
bri ght</w>
bran ches</w>
at ab
assist ant</w>
ash es</w>
as th
ap p</w>
ang ry</w>
am -
adver tis
ad ding</w>
abs ence</w>
Y ou
V o
V ed
Tul asi</w>
S us
S A</w>
R s</w>
R ed
Pong al</w>
Pitt s
O ris
Nic obar</w>
Mukher jee</w>
Mir za</w>
Kh and
Kath ak</w>
Kan sas</w>
K i</w>
Jah angir</w>
J odh
J ai</w>
Inc umbent</w>
For ce</w>
F our</w>
Ex am
E le
Com mission
Belgi an</w>
A ut
8 9</w>
196 1</w>
. ..</w>
worship ped</w>
wor se</w>
w ing</w>
w aste</w>
ut a</w>
ush ing</w>
ub an
tran si
tr e</w>
to ols</w>
ti fied</w>
ter ies</w>
tem porary</w>
tal king</w>
t ap
t aining</w>
stu dio</w>
sav ed</w>
ric h
res erve</w>
rec re
re la
re as
professi on
prac tical</w>
pl ant
ph al</w>
particip ants</w>
organis ation</w>
n is</w>
mo di
memb ership</w>
m amm
m akers</w>
jud ge</w>
inv aded</w>
he ar</w>
gu id
fl oods</w>
fiv e-
et ary</w>
er k
ep id
ep ic</w>
emor r
ear ning</w>
e dition</w>
cir cul
chall enge</w>
ch erry</w>
cap ture</w>
c ore</w>
c ool</w>
butt on</w>
bur n</w>
arm ies</w>
ar d
amm ation</w>
admin ist
Vij ayan
V ol
V in
Tibet an</w>
Sy dney</w>
Sh er
R evolution</w>
P le
Mad rid</w>
M r</w>
L ine</w>
L al
K az
I C
H ow
Gw ali
G ol
C ub
B ac
Al ong</w>
195 5</w>
195 0</w>
10 th</w>
10 ,000</w>
y ards</w>
we ep</w>
w ic
vari eties</w>
v el
tit led</w>
stand ards</w>
sour i</w>
sm an</w>
secre t</w>
s mar
requ i
rem ents</w>
qu een</w>
pl ate</w>
par al
ot ted</w>
os s</w>
op es</w>
occas ions</w>
n erv
multi -
may or</w>
mag azine</w>
li a</w>
l u</w>
k k
k ick
jo y</w>
j ustice</w>
int ers</w>
in sec
il li
i fied</w>
gath ered</w>
fall ing</w>
expres sion</w>
ex posed</w>
entr ance</w>
endul kar</w>
em br
el sewhere</w>
ec tious</w>
doc uments</w>
disc overy</w>
